unsigned char pinn_model_tflite[] = {
  0x1c, 0x00, 0x00, 0x00, 0x54, 0x46, 0x4c, 0x33, 0x14, 0x00, 0x20, 0x00,
  0x1c, 0x00, 0x18, 0x00, 0x14, 0x00, 0x10, 0x00, 0x0c, 0x00, 0x00, 0x00,
  0x08, 0x00, 0x04, 0x00, 0x14, 0x00, 0x00, 0x00, 0x1c, 0x00, 0x00, 0x00,
  0x90, 0x00, 0x00, 0x00, 0xe8, 0x00, 0x00, 0x00, 0xd0, 0x35, 0x00, 0x00,
  0xe0, 0x35, 0x00, 0x00, 0xc8, 0x41, 0x00, 0x00, 0x03, 0x00, 0x00, 0x00,
  0x01, 0x00, 0x00, 0x00, 0x10, 0x00, 0x00, 0x00, 0x00, 0x00, 0x0a, 0x00,
  0x10, 0x00, 0x0c, 0x00, 0x08, 0x00, 0x04, 0x00, 0x0a, 0x00, 0x00, 0x00,
  0x0c, 0x00, 0x00, 0x00, 0x1c, 0x00, 0x00, 0x00, 0x38, 0x00, 0x00, 0x00,
  0x0f, 0x00, 0x00, 0x00, 0x73, 0x65, 0x72, 0x76, 0x69, 0x6e, 0x67, 0x5f,
  0x64, 0x65, 0x66, 0x61, 0x75, 0x6c, 0x74, 0x00, 0x01, 0x00, 0x00, 0x00,
  0x04, 0x00, 0x00, 0x00, 0x98, 0xff, 0xff, 0xff, 0x0f, 0x00, 0x00, 0x00,
  0x04, 0x00, 0x00, 0x00, 0x07, 0x00, 0x00, 0x00, 0x64, 0x65, 0x6e, 0x73,
  0x65, 0x5f, 0x34, 0x00, 0x01, 0x00, 0x00, 0x00, 0x04, 0x00, 0x00, 0x00,
  0x3a, 0xcb, 0xff, 0xff, 0x04, 0x00, 0x00, 0x00, 0x0b, 0x00, 0x00, 0x00,
  0x64, 0x65, 0x6e, 0x73, 0x65, 0x5f, 0x69, 0x6e, 0x70, 0x75, 0x74, 0x00,
  0x02, 0x00, 0x00, 0x00, 0x34, 0x00, 0x00, 0x00, 0x04, 0x00, 0x00, 0x00,
  0xdc, 0xff, 0xff, 0xff, 0x12, 0x00, 0x00, 0x00, 0x04, 0x00, 0x00, 0x00,
  0x13, 0x00, 0x00, 0x00, 0x43, 0x4f, 0x4e, 0x56, 0x45, 0x52, 0x53, 0x49,
  0x4f, 0x4e, 0x5f, 0x4d, 0x45, 0x54, 0x41, 0x44, 0x41, 0x54, 0x41, 0x00,
  0x08, 0x00, 0x0c, 0x00, 0x08, 0x00, 0x04, 0x00, 0x08, 0x00, 0x00, 0x00,
  0x11, 0x00, 0x00, 0x00, 0x04, 0x00, 0x00, 0x00, 0x13, 0x00, 0x00, 0x00,
  0x6d, 0x69, 0x6e, 0x5f, 0x72, 0x75, 0x6e, 0x74, 0x69, 0x6d, 0x65, 0x5f,
  0x76, 0x65, 0x72, 0x73, 0x69, 0x6f, 0x6e, 0x00, 0x13, 0x00, 0x00, 0x00,
  0xe4, 0x34, 0x00, 0x00, 0xdc, 0x34, 0x00, 0x00, 0x4c, 0x34, 0x00, 0x00,
  0x34, 0x24, 0x00, 0x00, 0xa4, 0x23, 0x00, 0x00, 0x94, 0x13, 0x00, 0x00,
  0x04, 0x13, 0x00, 0x00, 0xf4, 0x02, 0x00, 0x00, 0xe0, 0x02, 0x00, 0x00,
  0x50, 0x02, 0x00, 0x00, 0xc0, 0x01, 0x00, 0x00, 0xb0, 0x00, 0x00, 0x00,
  0xa8, 0x00, 0x00, 0x00, 0xa0, 0x00, 0x00, 0x00, 0x98, 0x00, 0x00, 0x00,
  0x90, 0x00, 0x00, 0x00, 0x88, 0x00, 0x00, 0x00, 0x68, 0x00, 0x00, 0x00,
  0x04, 0x00, 0x00, 0x00, 0xfe, 0xcb, 0xff, 0xff, 0x04, 0x00, 0x00, 0x00,
  0x54, 0x00, 0x00, 0x00, 0x0c, 0x00, 0x00, 0x00, 0x08, 0x00, 0x0e, 0x00,
  0x08, 0x00, 0x04, 0x00, 0x08, 0x00, 0x00, 0x00, 0x10, 0x00, 0x00, 0x00,
  0x24, 0x00, 0x00, 0x00, 0x00, 0x00, 0x06, 0x00, 0x08, 0x00, 0x04, 0x00,
  0x06, 0x00, 0x00, 0x00, 0x04, 0x00, 0x00, 0x00, 0x00, 0x00, 0x00, 0x00,
  0x00, 0x00, 0x0a, 0x00, 0x10, 0x00, 0x0c, 0x00, 0x08, 0x00, 0x04, 0x00,
  0x0a, 0x00, 0x00, 0x00, 0x02, 0x00, 0x00, 0x00, 0x02, 0x00, 0x00, 0x00,
  0x04, 0x00, 0x00, 0x00, 0x06, 0x00, 0x00, 0x00, 0x32, 0x2e, 0x31, 0x33,
  0x2e, 0x31, 0x00, 0x00, 0x5e, 0xcc, 0xff, 0xff, 0x04, 0x00, 0x00, 0x00,
  0x10, 0x00, 0x00, 0x00, 0x31, 0x2e, 0x35, 0x2e, 0x30, 0x00, 0x00, 0x00,
  0x00, 0x00, 0x00, 0x00, 0x00, 0x00, 0x00, 0x00, 0x18, 0xc0, 0xff, 0xff,
  0x1c, 0xc0, 0xff, 0xff, 0x20, 0xc0, 0xff, 0xff, 0x24, 0xc0, 0xff, 0xff,
  0x28, 0xc0, 0xff, 0xff, 0x8e, 0xcc, 0xff, 0xff, 0x04, 0x00, 0x00, 0x00,
  0x00, 0x01, 0x00, 0x00, 0x48, 0x1c, 0x61, 0xbe, 0xd0, 0x7a, 0xbb, 0xbd,
  0xc0, 0x9c, 0xef, 0xbb, 0x98, 0xf1, 0x4d, 0xbd, 0xa3, 0xe7, 0x65, 0xbe,
  0x41, 0x40, 0xaa, 0x3e, 0xfb, 0xf5, 0x72, 0x3f, 0xc1, 0x2a, 0x98, 0xbd,
  0xeb, 0x4c, 0x4b, 0xbe, 0xf8, 0x2e, 0xfe, 0xbd, 0x7f, 0xa4, 0x78, 0xbe,
  0x46, 0xeb, 0x6d, 0xbe, 0x4d, 0xc3, 0xd1, 0xbe, 0x04, 0x55, 0xa3, 0xbd,
  0x60, 0x3e, 0xcb, 0xbc, 0xda, 0xa7, 0x10, 0xbe, 0xfd, 0xcb, 0x80, 0xbe,
  0x92, 0x7f, 0x3c, 0x3e, 0xb4, 0x54, 0x22, 0x3f, 0x43, 0x92, 0xec, 0xbe,
  0xd4, 0x41, 0x1c, 0x3f, 0xe9, 0xc3, 0x60, 0x3e, 0x9c, 0x98, 0xd0, 0xbd,
  0x81, 0x59, 0x81, 0x3e, 0xdc, 0x04, 0xbb, 0xbe, 0x5c, 0x7b, 0xd6, 0x3d,
  0xe7, 0x06, 0xc8, 0xbe, 0xba, 0xe2, 0x69, 0x3e, 0xdb, 0x52, 0x1f, 0x3f,
  0xec, 0x71, 0x00, 0x3e, 0x2d, 0xe8, 0x3a, 0xbe, 0x10, 0x7c, 0x78, 0xbd,
  0x76, 0x30, 0x83, 0x3f, 0x09, 0x49, 0xa1, 0xbe, 0x5e, 0x00, 0x25, 0xbe,
  0x17, 0x80, 0xb5, 0xbe, 0x58, 0x2e, 0x32, 0x3e, 0xfb, 0x4a, 0x2f, 0xbf,
  0x75, 0xbc, 0x2a, 0xbf, 0x0a, 0xdd, 0x89, 0xbf, 0x20, 0x91, 0x4b, 0x3f,
  0x85, 0x11, 0x99, 0x3e, 0xad, 0xda, 0x79, 0xbe, 0xe0, 0x13, 0x4f, 0x3d,
  0xe4, 0x49, 0xab, 0xbd, 0x4c, 0xfd, 0x96, 0xbe, 0x17, 0x71, 0xbf, 0xbe,
  0xb0, 0x57, 0xe8, 0x3c, 0x90, 0x2e, 0x7d, 0xbd, 0x30, 0xdb, 0x1c, 0xbd,
  0x6a, 0x65, 0xc3, 0xbe, 0x8e, 0x6b, 0x04, 0x3e, 0x88, 0x29, 0xd1, 0xbd,
  0xe0, 0x30, 0x49, 0xbe, 0x81, 0x93, 0x22, 0x3f, 0x3b, 0x23, 0x35, 0x3e,
  0x10, 0xcc, 0xc7, 0xbd, 0xe2, 0x55, 0x7b, 0x3e, 0x47, 0xdd, 0x4d, 0x3f,
  0x78, 0x14, 0x06, 0xbf, 0x20, 0x3c, 0xad, 0x3e, 0x9d, 0x5b, 0x2f, 0xbf,
  0x96, 0x08, 0xf8, 0x3e, 0x9a, 0xfa, 0xa9, 0x3f, 0x9a, 0xcd, 0xff, 0xff,
  0x04, 0x00, 0x00, 0x00, 0x80, 0x00, 0x00, 0x00, 0x00, 0x00, 0x00, 0x00,
  0x00, 0x00, 0x00, 0x00, 0x00, 0x00, 0x00, 0x00, 0x94, 0xd3, 0x1c, 0xbe,
  0x00, 0x00, 0x00, 0x00, 0x00, 0x00, 0x00, 0x00, 0x00, 0x00, 0x00, 0x00,
  0x00, 0x00, 0x00, 0x00, 0x00, 0x00, 0x00, 0x00, 0xab, 0xd6, 0xf2, 0x3e,
  0xb4, 0xc1, 0x35, 0x3e, 0x00, 0x00, 0x00, 0x00, 0x00, 0x00, 0x00, 0x00,
  0x00, 0x00, 0x00, 0x00, 0x61, 0x36, 0x17, 0x3f, 0x00, 0x00, 0x00, 0x00,
  0x3d, 0xd0, 0x2c, 0xbf, 0x00, 0x00, 0x00, 0x00, 0xcf, 0x9a, 0x23, 0xbe,
  0x3b, 0x13, 0xde, 0x3e, 0x3f, 0x89, 0xc6, 0x3e, 0x00, 0x00, 0x00, 0x00,
  0x00, 0x00, 0x00, 0x00, 0x00, 0x00, 0x00, 0x00, 0x00, 0x00, 0x00, 0x00,
  0x00, 0x00, 0x00, 0x00, 0x00, 0x00, 0x00, 0x00, 0x5f, 0x49, 0x9e, 0xbe,
  0x00, 0x00, 0x00, 0x00, 0x86, 0x2f, 0xd9, 0x3e, 0x1c, 0x91, 0x11, 0xbe,
  0x3e, 0x60, 0xba, 0x3e, 0x26, 0xce, 0xff, 0xff, 0x04, 0x00, 0x00, 0x00,
  0x80, 0x00, 0x00, 0x00, 0x44, 0x3a, 0xd1, 0x3d, 0xa1, 0x98, 0x9b, 0xbe,
  0xcd, 0x01, 0x3c, 0x3d, 0x33, 0x26, 0x82, 0x3d, 0xdf, 0xda, 0x31, 0x3e,
  0x8c, 0x72, 0x28, 0x3e, 0x9d, 0x2d, 0x45, 0x3e, 0x2f, 0xe5, 0x3e, 0xbe,
  0x23, 0xc4, 0x1a, 0x3e, 0x68, 0xe5, 0x71, 0xbe, 0x6f, 0xf7, 0xd1, 0xbd,
  0xe5, 0x05, 0x5b, 0x3d, 0x2f, 0xf7, 0xaa, 0xbe, 0x09, 0x0e, 0x77, 0x3b,
  0x6b, 0x6b, 0x2d, 0x3d, 0x39, 0xdb, 0x62, 0xbe, 0x60, 0x25, 0x65, 0x3e,
  0x4c, 0x5b, 0x0c, 0x3e, 0x0b, 0x59, 0x94, 0x3e, 0x75, 0x66, 0x05, 0xbe,
  0xe9, 0x01, 0x12, 0x3e, 0x11, 0xcd, 0x33, 0x3e, 0xa4, 0xff, 0xe9, 0x3d,
  0x84, 0x06, 0xbb, 0x3d, 0xd1, 0xfe, 0x2d, 0xbe, 0xf3, 0xb4, 0x51, 0xbe,
  0x48, 0xa2, 0xb9, 0x3d, 0x97, 0x16, 0x04, 0xbe, 0x53, 0x62, 0xc2, 0x3d,
  0x53, 0x5a, 0xc9, 0x3e, 0x73, 0x63, 0x1d, 0xbe, 0x97, 0x07, 0x22, 0xbe,
  0xb2, 0xce, 0xff, 0xff, 0x04, 0x00, 0x00, 0x00, 0x04, 0x00, 0x00, 0x00,
  0xaa, 0xcc, 0xf0, 0x42, 0xc2, 0xce, 0xff, 0xff, 0x04, 0x00, 0x00, 0x00,
  0x00, 0x10, 0x00, 0x00, 0x37, 0xe5, 0x50, 0xbd, 0x31, 0x47, 0x9f, 0x3c,
  0x3f, 0x00, 0x5d, 0x3e, 0x86, 0xce, 0x0f, 0x3d, 0x3e, 0x56, 0xd8, 0x3d,
  0x79, 0xed, 0x16, 0x3e, 0x6a, 0x6c, 0xd3, 0xbd, 0xc7, 0x94, 0x70, 0x3f,
  0xde, 0xd0, 0xc0, 0xbe, 0xd1, 0x25, 0x5b, 0x3e, 0xc6, 0x82, 0xa9, 0x3d,
  0x56, 0x91, 0x6c, 0xbd, 0x1d, 0x23, 0xf1, 0xbd, 0xa0, 0x59, 0xba, 0x3c,
  0xf9, 0x20, 0x28, 0x3d, 0x7f, 0xcb, 0xbd, 0x3c, 0x9e, 0xe1, 0x9f, 0xc1,
  0xa2, 0xf6, 0xdc, 0xbc, 0x51, 0x33, 0x6c, 0xbd, 0x9f, 0x1b, 0xa1, 0x3e,
  0xae, 0xc0, 0x76, 0xbb, 0xc4, 0xf8, 0x44, 0x3e, 0xa1, 0x30, 0x94, 0xbd,
  0xf0, 0x27, 0x0b, 0x3e, 0x0b, 0x3b, 0x41, 0xbe, 0x32, 0xd4, 0x13, 0xbd,
  0x61, 0x59, 0x62, 0x3d, 0x01, 0xa6, 0x1e, 0xbe, 0x0c, 0xb6, 0xea, 0xbb,
  0x83, 0x66, 0x5d, 0x3f, 0xe9, 0xf4, 0xcc, 0x3d, 0x53, 0xea, 0xb5, 0x3d,
  0x42, 0x44, 0x86, 0x3d, 0x98, 0xaa, 0x6f, 0xbc, 0x90, 0x86, 0xa9, 0xbd,
  0x81, 0x7f, 0x39, 0xbc, 0xfc, 0xae, 0xb1, 0x3d, 0xfe, 0x4d, 0xc8, 0xbd,
  0x45, 0x75, 0xcd, 0x3d, 0x21, 0xa3, 0xf6, 0xbd, 0xe0, 0x46, 0x00, 0x3f,
  0x5f, 0xbd, 0xbb, 0xbe, 0x27, 0xe7, 0xdf, 0xbd, 0x22, 0x7f, 0x35, 0x3d,
  0x2d, 0x82, 0x00, 0x3f, 0xa2, 0x7b, 0x7b, 0xbe, 0x44, 0xae, 0xdb, 0xbc,
  0x24, 0x78, 0xeb, 0x3d, 0xa8, 0x53, 0xe0, 0xc1, 0x77, 0x87, 0x86, 0x3d,
  0x65, 0x27, 0xaf, 0x3d, 0xea, 0x58, 0xcb, 0xbb, 0xc4, 0x7e, 0x22, 0x3d,
  0xa9, 0x24, 0xb4, 0xbd, 0xda, 0x08, 0x9e, 0x3d, 0x5d, 0xb8, 0x7e, 0xbd,
  0x5a, 0x42, 0x72, 0x3e, 0xbe, 0x60, 0x92, 0x3c, 0x8c, 0x3b, 0xe9, 0xbb,
  0xf8, 0x82, 0x1c, 0x3e, 0xbd, 0xb8, 0x4c, 0x3c, 0x88, 0x0c, 0xdf, 0xbe,
  0xd8, 0x12, 0xa4, 0xbd, 0x85, 0x51, 0x46, 0xbc, 0xfd, 0x51, 0x8c, 0xbd,
  0x0c, 0x02, 0x06, 0x3d, 0x03, 0x30, 0x6b, 0xbe, 0x1a, 0xb4, 0x49, 0x3c,
  0x55, 0x5a, 0xbc, 0xbe, 0xcf, 0xd9, 0xfb, 0x3c, 0x26, 0x8d, 0x21, 0xbe,
  0x7d, 0xa3, 0x5b, 0xbf, 0x18, 0x91, 0x53, 0x3f, 0x4b, 0x2c, 0xb0, 0xbe,
  0x9a, 0xb5, 0x3e, 0x3d, 0x3c, 0x06, 0xc4, 0xbc, 0x3f, 0x5d, 0x3c, 0x3e,
  0x47, 0x62, 0xd0, 0x3c, 0x8a, 0xd0, 0x14, 0x3c, 0x8a, 0x8f, 0xb8, 0x3c,
  0xba, 0x4c, 0xc9, 0x41, 0x2e, 0x4f, 0xc5, 0xbd, 0xa4, 0xec, 0xe7, 0x3d,
  0x5b, 0xbf, 0x3e, 0xbe, 0x80, 0x3d, 0xd6, 0xbc, 0x1c, 0x0c, 0x91, 0xbd,
  0x6f, 0xb8, 0x30, 0x3d, 0xc2, 0x97, 0x8a, 0xbd, 0x2e, 0x99, 0x0a, 0x3d,
  0x68, 0xdc, 0x36, 0xbd, 0x38, 0xa1, 0x82, 0x3d, 0x9b, 0xe8, 0xc2, 0x3e,
  0x9d, 0xd3, 0x79, 0xb9, 0x2e, 0xce, 0xfc, 0xbe, 0xce, 0xf3, 0xb7, 0xbd,
  0x70, 0x3c, 0xea, 0x3c, 0x5a, 0x6c, 0x60, 0xbd, 0x51, 0x50, 0x8a, 0x3c,
  0x6d, 0x87, 0x56, 0x3e, 0x9f, 0x01, 0x8f, 0x3d, 0xb4, 0x2e, 0x72, 0x3e,
  0xb9, 0x87, 0xf0, 0x3d, 0x73, 0x5b, 0xe2, 0xbb, 0xa1, 0x79, 0x85, 0x3f,
  0xe7, 0xcf, 0x9e, 0xbe, 0xd7, 0xc0, 0x82, 0x3e, 0x1a, 0xde, 0xd2, 0x3d,
  0x2b, 0x9b, 0x4d, 0xbd, 0xd6, 0x09, 0x8c, 0xbe, 0xed, 0xe5, 0xb9, 0xbd,
  0xe3, 0xf4, 0x8f, 0x3b, 0x29, 0xbc, 0x41, 0xbd, 0x99, 0xa2, 0xfe, 0xc1,
  0xe0, 0x53, 0xbc, 0x3c, 0xbf, 0xeb, 0x55, 0x3a, 0x54, 0xdc, 0xa2, 0x3d,
  0x17, 0x5e, 0xfe, 0xbc, 0x70, 0x2f, 0x21, 0x3e, 0xbb, 0x6d, 0xae, 0xbd,
  0xc9, 0x21, 0x93, 0xbd, 0x23, 0x06, 0x0e, 0xbe, 0x05, 0x90, 0x66, 0xbd,
  0x99, 0xf5, 0x8a, 0x3d, 0x32, 0x66, 0x16, 0xbe, 0x1a, 0x26, 0x14, 0xbc,
  0x56, 0x2f, 0x21, 0x3f, 0x9c, 0x10, 0xb7, 0x3c, 0x2c, 0x8f, 0x93, 0x3d,
  0xe9, 0x95, 0x65, 0xbd, 0xf3, 0x4b, 0x46, 0xbd, 0x41, 0xd3, 0x96, 0x3e,
  0x1c, 0xcb, 0x02, 0x3d, 0x64, 0xd1, 0x48, 0x3e, 0xe0, 0x04, 0x18, 0x3e,
  0x75, 0x31, 0xa4, 0x3d, 0x88, 0xad, 0xb2, 0x3f, 0xd3, 0x3e, 0x6b, 0x3e,
  0x04, 0xfb, 0xf5, 0x3c, 0xb0, 0xb2, 0x03, 0xbb, 0x94, 0x48, 0x8e, 0xbd,
  0x43, 0x1b, 0x86, 0xbe, 0x37, 0xb0, 0x80, 0xbe, 0xc2, 0xd2, 0x1c, 0x3b,
  0xbb, 0x75, 0x7e, 0x3d, 0xbf, 0x4e, 0x3f, 0xc1, 0xb5, 0x11, 0x05, 0x3e,
  0xef, 0x05, 0xb1, 0x3d, 0x5b, 0x94, 0xad, 0x3e, 0x63, 0x2c, 0x15, 0x3d,
  0xd1, 0xcd, 0x0a, 0x3e, 0xe1, 0x66, 0x8a, 0xbd, 0x73, 0xb5, 0xa3, 0xbd,
  0xf9, 0x19, 0xf1, 0xbd, 0xf5, 0xb8, 0x9b, 0xbc, 0x85, 0xa1, 0x29, 0x3c,
  0x95, 0x0c, 0x2b, 0xbe, 0x46, 0x37, 0xb2, 0xba, 0x7d, 0x87, 0x12, 0x3f,
  0x62, 0x93, 0x43, 0xbc, 0x89, 0x8c, 0x7b, 0x3d, 0x7b, 0xd4, 0x78, 0xbd,
  0x48, 0x9d, 0x8e, 0x3b, 0xfd, 0xe6, 0xbf, 0xbc, 0x60, 0xa4, 0x1e, 0x3d,
  0xa2, 0x60, 0x46, 0xbe, 0x98, 0x93, 0xbd, 0xbd, 0x15, 0x7d, 0xad, 0xbd,
  0x09, 0xcb, 0xb2, 0x3e, 0x6f, 0xc3, 0xb4, 0xbe, 0x5f, 0xdc, 0xa9, 0x3d,
  0x0d, 0x12, 0x1d, 0xbd, 0x64, 0x08, 0x44, 0xbd, 0xc4, 0x13, 0xbe, 0xbe,
  0x78, 0xd4, 0x1e, 0x3e, 0xd3, 0x48, 0xd5, 0x3c, 0x09, 0xe0, 0x0e, 0xbe,
  0xaa, 0x5d, 0xe6, 0xc1, 0x24, 0xec, 0xf6, 0xbd, 0x75, 0xd1, 0x04, 0xbe,
  0x59, 0x12, 0x68, 0xbe, 0x91, 0x27, 0x99, 0xbd, 0xfe, 0x05, 0x88, 0xbc,
  0xfb, 0xfd, 0xd7, 0xbd, 0xb1, 0xbc, 0x64, 0x3e, 0x16, 0x49, 0x47, 0xbe,
  0x2c, 0xc5, 0xdc, 0xbc, 0x32, 0xe2, 0xf7, 0x3c, 0xc9, 0x3b, 0x76, 0xbe,
  0x39, 0x8c, 0xb2, 0xbb, 0x83, 0x7c, 0x9d, 0x3e, 0xb8, 0x5b, 0xf6, 0x3c,
  0xc6, 0x84, 0xdf, 0x3b, 0x12, 0xc4, 0x47, 0xbe, 0x2a, 0x9f, 0x30, 0xbc,
  0x92, 0x02, 0x97, 0xbe, 0x6e, 0xcc, 0x66, 0x3d, 0x4e, 0x8a, 0xb3, 0xbe,
  0x06, 0xb2, 0x8d, 0xbd, 0x9f, 0x1d, 0xdd, 0xbd, 0x9b, 0xf8, 0x3d, 0xbf,
  0x5a, 0x4a, 0x10, 0x3f, 0x1d, 0x1f, 0xf1, 0xbe, 0xda, 0xd6, 0x1d, 0xbd,
  0x30, 0x87, 0xd2, 0xbd, 0x54, 0xab, 0xce, 0xbb, 0x02, 0xed, 0x52, 0xbe,
  0x76, 0xe0, 0xb9, 0xbc, 0x42, 0x1d, 0xae, 0xbd, 0x4f, 0x71, 0x7c, 0xc0,
  0x2b, 0x3f, 0x4c, 0xbd, 0x41, 0x88, 0x09, 0xbd, 0xf1, 0x03, 0x57, 0xbe,
  0xa1, 0xb6, 0xa8, 0xbc, 0xa9, 0xd1, 0xa9, 0xbd, 0x68, 0x66, 0x38, 0x3c,
  0x12, 0x80, 0x98, 0xbd, 0x44, 0xfc, 0x10, 0x3e, 0x62, 0x77, 0x76, 0xbd,
  0x14, 0xb5, 0x95, 0x3d, 0xbf, 0xd0, 0x0f, 0x3e, 0x56, 0x4f, 0xb2, 0x3c,
  0xb3, 0x6e, 0x94, 0xbe, 0xc0, 0x7d, 0x4a, 0xbc, 0x5d, 0xa3, 0xb5, 0x3b,
  0xfd, 0x1e, 0x44, 0xbc, 0x9c, 0xf3, 0x1c, 0x3d, 0x46, 0x1a, 0x73, 0xbe,
  0x70, 0x2a, 0xd6, 0xbc, 0xf9, 0x49, 0xdf, 0xbe, 0xba, 0x88, 0xf5, 0xbd,
  0xb2, 0xc0, 0x05, 0xbe, 0x0c, 0x04, 0x82, 0xbf, 0xb8, 0x89, 0x0a, 0xbe,
  0xa7, 0xc5, 0x57, 0xbe, 0x62, 0xf9, 0x51, 0x3d, 0xa2, 0x6d, 0x51, 0x3d,
  0x80, 0xe3, 0x34, 0xbe, 0xdc, 0x2b, 0x93, 0x3d, 0x67, 0x1d, 0xa5, 0x3c,
  0x69, 0x0b, 0xf9, 0xbd, 0xdb, 0x2b, 0xb2, 0x41, 0xa1, 0xc9, 0x99, 0xbd,
  0x94, 0x91, 0xbe, 0xbd, 0x6e, 0x28, 0x3b, 0xbe, 0xcf, 0x14, 0x07, 0xbd,
  0xd7, 0x16, 0xdc, 0xbd, 0xdf, 0x81, 0x0e, 0xbd, 0x43, 0x7a, 0x85, 0x3e,
  0x62, 0x17, 0x4d, 0xbd, 0x51, 0x6d, 0x1b, 0xbd, 0x2e, 0x8a, 0xad, 0xbd,
  0x5c, 0xe0, 0x08, 0x3e, 0xff, 0x7a, 0x97, 0x3a, 0x00, 0xd1, 0x1e, 0xbf,
  0xeb, 0xdf, 0xb5, 0x3d, 0x75, 0x1a, 0x68, 0xbd, 0x7f, 0x93, 0xd7, 0xbc,
  0x68, 0x18, 0x87, 0xbd, 0x93, 0x50, 0x27, 0x3e, 0x9a, 0x54, 0xcd, 0xbb,
  0x56, 0x71, 0x8d, 0x3e, 0x44, 0x02, 0xdb, 0x3d, 0xaf, 0x14, 0xf9, 0x3d,
  0x82, 0x73, 0x10, 0x3f, 0xbe, 0x07, 0x26, 0xbf, 0x91, 0x6a, 0x8a, 0x3e,
  0x80, 0x75, 0xf5, 0x3c, 0x9d, 0x51, 0x7b, 0x3c, 0xe0, 0xf8, 0x65, 0xbe,
  0xe6, 0xb4, 0xe4, 0xbc, 0x94, 0x9a, 0x29, 0x3d, 0x1c, 0x8f, 0xdc, 0x3d,
  0xa6, 0xcc, 0x74, 0xc0, 0x9b, 0x90, 0x86, 0x3d, 0x6e, 0x3b, 0x51, 0x3d,
  0xa3, 0x15, 0xad, 0x3e, 0x2f, 0x72, 0x6f, 0x3d, 0x45, 0x7a, 0xb7, 0x3d,
  0xa0, 0x91, 0xd0, 0xbd, 0x7d, 0xc0, 0x0a, 0xbe, 0x2a, 0xec, 0x19, 0xbe,
  0xc6, 0x21, 0x53, 0x3c, 0xda, 0xf5, 0x22, 0xbd, 0xba, 0xad, 0x57, 0xbe,
  0x1e, 0x62, 0xc4, 0xbb, 0x7f, 0xd6, 0xef, 0x3e, 0x92, 0xd6, 0x13, 0x3d,
  0xdc, 0xaf, 0xa2, 0xbc, 0x97, 0x15, 0x9c, 0xbd, 0xdb, 0x68, 0x80, 0x3d,
  0x45, 0x48, 0x7c, 0xbc, 0xff, 0xde, 0x45, 0x3d, 0x60, 0x84, 0x07, 0xbe,
  0x88, 0xc6, 0xb3, 0xbd, 0x49, 0x56, 0xcf, 0xbb, 0xcd, 0x46, 0xb5, 0xbd,
  0x55, 0xea, 0x34, 0x3f, 0xc1, 0x8c, 0x40, 0xbe, 0xc0, 0xda, 0xcd, 0xbc,
  0x78, 0x26, 0x95, 0x3c, 0x36, 0x04, 0x10, 0x3f, 0x8a, 0x6a, 0x82, 0xbe,
  0x49, 0x7d, 0x14, 0xbc, 0x68, 0xc8, 0x4e, 0xbb, 0xbf, 0xfa, 0x9e, 0xc0,
  0x5e, 0xaa, 0xa1, 0xbd, 0xe0, 0xca, 0x46, 0xbd, 0xe2, 0x8e, 0x20, 0xbe,
  0xd1, 0x7a, 0x10, 0xbd, 0x96, 0x27, 0x89, 0xbd, 0x6f, 0xfe, 0xf0, 0x3d,
  0xc3, 0x5d, 0xe7, 0xbd, 0xf3, 0xe5, 0xab, 0x3e, 0x1b, 0xc6, 0xba, 0x3c,
  0x87, 0xaf, 0x88, 0x3d, 0xf1, 0xfd, 0xb8, 0x3b, 0x6b, 0xc9, 0x1e, 0x3b,
  0x9e, 0xfc, 0xad, 0xbe, 0x0c, 0x46, 0xed, 0x3a, 0xa6, 0x85, 0x83, 0x3c,
  0x52, 0xfc, 0x97, 0xbc, 0x28, 0xb3, 0x08, 0x3d, 0x19, 0x55, 0xe3, 0xbd,
  0x8e, 0x98, 0x8f, 0xbc, 0x9c, 0xe3, 0x76, 0xbd, 0xa1, 0xa8, 0x9c, 0xbd,
  0x22, 0x4e, 0xac, 0x3d, 0x05, 0x10, 0xc1, 0xbe, 0x17, 0xfa, 0x4e, 0x3f,
  0x70, 0x6f, 0xbf, 0xbe, 0x5d, 0xc9, 0xce, 0xbd, 0x6b, 0x57, 0x2b, 0x3c,
  0x98, 0x90, 0x06, 0x3f, 0xd9, 0x43, 0xdd, 0xbe, 0x8e, 0xbc, 0x02, 0xbd,
  0xfa, 0x21, 0x50, 0x3d, 0x69, 0x8f, 0x7b, 0x3f, 0xf8, 0x86, 0x3d, 0xbd,
  0x62, 0xa9, 0xec, 0x3c, 0xf2, 0x5f, 0xa8, 0xbe, 0x5c, 0x79, 0xbf, 0x3c,
  0x22, 0x9e, 0x02, 0xbd, 0x65, 0x55, 0xdc, 0x3d, 0xe3, 0x5b, 0xb0, 0xbd,
  0x5e, 0xf7, 0xa2, 0x3e, 0x5e, 0x30, 0x97, 0x3c, 0xb1, 0xf9, 0x07, 0x3d,
  0x77, 0x83, 0x33, 0x3e, 0x15, 0xd8, 0x0b, 0x3c, 0xde, 0xea, 0x00, 0xbf,
  0xa4, 0xb4, 0x05, 0xbe, 0xea, 0x27, 0x0c, 0x3c, 0x33, 0x46, 0x0d, 0xbd,
  0x1a, 0x63, 0x5b, 0xbd, 0x59, 0xdd, 0xd7, 0xbd, 0x32, 0x0f, 0xaf, 0xbd,
  0x4f, 0xe7, 0x6d, 0xbe, 0xc0, 0x31, 0x95, 0x3a, 0x16, 0x66, 0x46, 0xbd,
  0x2d, 0xe7, 0x88, 0xbf, 0xe3, 0x66, 0x5d, 0xbe, 0xa0, 0x05, 0x86, 0xbe,
  0x70, 0x84, 0xc6, 0x3d, 0xfe, 0xdf, 0xdf, 0xbc, 0xda, 0x0d, 0xda, 0xbe,
  0xda, 0xac, 0x90, 0x3d, 0xce, 0xd1, 0x7e, 0x3c, 0x54, 0x69, 0x6b, 0xbd,
  0xf3, 0x39, 0x34, 0x41, 0xc4, 0x03, 0x9d, 0xbd, 0x9d, 0xb0, 0x73, 0x3d,
  0x02, 0x71, 0xa7, 0xbe, 0x8b, 0x14, 0x1f, 0xbd, 0x69, 0x50, 0x1d, 0xbd,
  0xaa, 0x9d, 0xfc, 0xbd, 0x16, 0x97, 0x0e, 0xbe, 0xfc, 0x89, 0x73, 0xbe,
  0x83, 0x47, 0x6d, 0xbc, 0xcc, 0x86, 0x85, 0x3d, 0x2c, 0x2c, 0x48, 0xbe,
  0xdf, 0x1a, 0x24, 0xbc, 0xe6, 0xce, 0x27, 0xbf, 0x4c, 0x50, 0xfb, 0xbd,
  0xa8, 0x01, 0xea, 0xbd, 0x08, 0x45, 0x35, 0xbd, 0x69, 0x36, 0xa6, 0x3d,
  0xe3, 0x10, 0x34, 0x3e, 0x9a, 0x19, 0x66, 0x3b, 0x60, 0x30, 0xcd, 0x3e,
  0x69, 0xd7, 0xa9, 0x3d, 0xb1, 0x76, 0x1a, 0x3e, 0x9e, 0x07, 0x5d, 0x3f,
  0x3f, 0x18, 0x1a, 0x3d, 0x50, 0xa0, 0x7b, 0x3e, 0x90, 0x54, 0xe4, 0x3c,
  0x7c, 0xc7, 0x7d, 0xbb, 0xf0, 0x58, 0x8c, 0x3e, 0x22, 0x62, 0x5a, 0xbe,
  0xc1, 0x99, 0xe5, 0xb9, 0x9f, 0x88, 0xdb, 0x3d, 0x51, 0xea, 0x59, 0xc1,
  0xd9, 0x94, 0x04, 0x3e, 0xb5, 0xbb, 0x5c, 0x3d, 0xaa, 0xca, 0x42, 0x3d,
  0xb5, 0x51, 0x91, 0x3d, 0x95, 0x52, 0x34, 0x3d, 0x70, 0x1b, 0x05, 0x3d,
  0x35, 0x5d, 0xa8, 0x3e, 0x7f, 0xf4, 0xac, 0x3d, 0xe7, 0xcd, 0xf3, 0xbc,
  0xc6, 0x67, 0x63, 0x3c, 0xd6, 0x3d, 0x19, 0xbc, 0xc8, 0xa4, 0x3f, 0xbc,
  0xae, 0xf9, 0xc4, 0x3e, 0x8b, 0xf0, 0x49, 0x3d, 0x0f, 0x29, 0x93, 0x3c,
  0x5b, 0x0d, 0x93, 0xbd, 0x1c, 0x18, 0x2b, 0x3d, 0x7e, 0x87, 0xa8, 0x3d,
  0x00, 0x69, 0x74, 0x3d, 0xb9, 0xbb, 0x02, 0xbd, 0x40, 0x7e, 0x18, 0xbc,
  0xf7, 0x29, 0x2e, 0xbe, 0xcb, 0x64, 0x8d, 0x3e, 0x39, 0x8f, 0x23, 0xbf,
  0x83, 0xf5, 0xdf, 0x3d, 0x00, 0x9a, 0xe4, 0xbc, 0x0a, 0x33, 0x2b, 0xbd,
  0xd6, 0x82, 0x70, 0xbe, 0x1c, 0x6e, 0x78, 0xbd, 0x57, 0x3d, 0xe5, 0x3c,
  0xc5, 0xb6, 0xe5, 0xbd, 0x05, 0xff, 0xcf, 0xc1, 0xe2, 0x95, 0x67, 0xbd,
  0x15, 0x72, 0xa8, 0xbd, 0x5c, 0x00, 0xf2, 0xbd, 0x8d, 0xf2, 0x06, 0xbd,
  0x83, 0x98, 0x98, 0x3d, 0xd8, 0xd0, 0xe2, 0xbd, 0x3a, 0x89, 0xca, 0x3e,
  0xd2, 0x28, 0xda, 0xbd, 0x04, 0x88, 0x59, 0xbd, 0x5c, 0xeb, 0xb1, 0x3c,
  0x78, 0x45, 0x07, 0xbe, 0x49, 0x65, 0x9b, 0xbb, 0x7a, 0x75, 0xc8, 0x3e,
  0x63, 0x43, 0x08, 0x3d, 0x47, 0x30, 0x9e, 0x3d, 0x6e, 0x90, 0xdb, 0x3c,
  0x84, 0x3f, 0x9e, 0xbc, 0x92, 0xe8, 0x30, 0x3e, 0x7b, 0xa0, 0xa9, 0xbc,
  0xd5, 0x00, 0x82, 0x3e, 0x62, 0x9b, 0x1a, 0x3e, 0x64, 0x6a, 0xf7, 0x3c,
  0x7b, 0x4b, 0x3b, 0x3f, 0x98, 0xef, 0xec, 0xbe, 0xcc, 0xd2, 0xdd, 0x3e,
  0x05, 0x99, 0x83, 0x3c, 0x36, 0x59, 0xa4, 0xbc, 0x67, 0xbf, 0x90, 0xbe,
  0x79, 0x83, 0xdc, 0x3d, 0xb6, 0xed, 0xc9, 0x3c, 0x83, 0x58, 0x5c, 0x3b,
  0xff, 0xc4, 0xa6, 0x3f, 0x82, 0xf7, 0xaf, 0x3d, 0x00, 0x2b, 0x23, 0xbc,
  0xfb, 0xbe, 0xe4, 0x3e, 0x0f, 0x43, 0x1c, 0xbc, 0x74, 0x4b, 0x92, 0x3d,
  0x59, 0x98, 0x10, 0xbe, 0xc7, 0xd3, 0x8e, 0xbd, 0x5a, 0xc6, 0x43, 0xbe,
  0xee, 0x4f, 0x8f, 0x3b, 0x34, 0x8d, 0x27, 0xbd, 0xc8, 0x0f, 0x26, 0xbe,
  0x4c, 0x9a, 0x4f, 0xbc, 0x2c, 0x84, 0xf7, 0x3e, 0xdb, 0xce, 0xdd, 0x3d,
  0x10, 0x73, 0x1b, 0xbd, 0xaa, 0xd7, 0xee, 0x3d, 0x6e, 0xa7, 0x88, 0x3d,
  0xbd, 0x83, 0xc5, 0x3e, 0x61, 0xf1, 0x5b, 0xbc, 0x51, 0x6f, 0xb5, 0x3e,
  0x4d, 0xfb, 0x50, 0xbd, 0x7d, 0x1d, 0xc5, 0x3d, 0xb2, 0xb3, 0x41, 0x3f,
  0x59, 0x62, 0xc4, 0xbe, 0x87, 0xba, 0x37, 0x3e, 0x68, 0x86, 0xa2, 0xbd,
  0x4d, 0x01, 0x30, 0x3d, 0xcf, 0x8c, 0x53, 0x3e, 0xb9, 0x5a, 0x1d, 0x3e,
  0x32, 0x4d, 0x89, 0xbc, 0xb1, 0x94, 0x8a, 0xbd, 0xa4, 0xc8, 0x13, 0xc1,
  0x2c, 0x46, 0xe1, 0x3d, 0xb6, 0x2f, 0x86, 0xbd, 0x7a, 0x80, 0xac, 0x3e,
  0x23, 0x3a, 0x23, 0x3d, 0x51, 0xf4, 0x4c, 0x3d, 0x6c, 0x52, 0xb1, 0x3c,
  0x1d, 0xab, 0x4f, 0x3e, 0x07, 0x7a, 0x08, 0x3d, 0xc0, 0x29, 0xce, 0x3c,
  0xca, 0x19, 0xb6, 0xbd, 0x88, 0x0c, 0x92, 0xbd, 0x3b, 0x63, 0x5d, 0x39,
  0x03, 0x49, 0xe1, 0x3e, 0x0c, 0x1d, 0xf3, 0x3d, 0x7d, 0x19, 0x25, 0xbd,
  0x3c, 0x14, 0xbd, 0xbd, 0xf3, 0x3b, 0x80, 0x3d, 0xb6, 0xf0, 0xae, 0xbd,
  0x60, 0x00, 0xc4, 0x3d, 0x06, 0x82, 0x7f, 0xbd, 0x91, 0x52, 0xb1, 0xbd,
  0x4c, 0x37, 0xca, 0xbd, 0xa3, 0x58, 0x21, 0x3e, 0x53, 0x4c, 0x98, 0x3e,
  0x16, 0x6a, 0x4e, 0x3d, 0x2c, 0x9e, 0xfb, 0xbd, 0xd7, 0x23, 0x7f, 0xbd,
  0x2a, 0x12, 0xff, 0x3e, 0x3e, 0x6a, 0xbb, 0xbe, 0x2a, 0x1e, 0x1c, 0xbc,
  0x78, 0x20, 0xbb, 0xbd, 0x56, 0x65, 0xce, 0xc1, 0xef, 0x05, 0x86, 0xbc,
  0x1a, 0x7d, 0xe1, 0xbd, 0x03, 0x37, 0x5a, 0xbe, 0x96, 0x18, 0xa7, 0xbd,
  0x9b, 0x78, 0x1b, 0x3c, 0x9d, 0x90, 0x98, 0x3d, 0x48, 0x81, 0x60, 0x3e,
  0x59, 0xb6, 0x0a, 0x3e, 0xfe, 0x7c, 0x73, 0xbd, 0x10, 0x4d, 0xcc, 0x3d,
  0x88, 0xd4, 0x39, 0x3d, 0x38, 0x35, 0xd5, 0xba, 0x6a, 0x1d, 0x9f, 0xbc,
  0x5f, 0xa9, 0xc1, 0xbd, 0x8f, 0x31, 0xca, 0x3d, 0xa6, 0x1a, 0x4a, 0xbe,
  0xe5, 0x7a, 0x73, 0x3d, 0xf0, 0x39, 0x9b, 0xbe, 0x03, 0xeb, 0x8c, 0xbb,
  0x12, 0xeb, 0xf7, 0xbe, 0x5d, 0x0c, 0xfc, 0x3b, 0xd5, 0x77, 0x1e, 0xbe,
  0xef, 0xab, 0x27, 0xbf, 0x75, 0x7b, 0xe8, 0xbe, 0x91, 0x31, 0x82, 0xbe,
  0x55, 0x0d, 0xa7, 0xbc, 0xfd, 0x97, 0xbe, 0xbd, 0xc3, 0x15, 0xa3, 0xbe,
  0x81, 0xb2, 0x63, 0xbd, 0x0e, 0xab, 0x2a, 0x3c, 0xa6, 0x18, 0xde, 0xbd,
  0xda, 0xd5, 0x01, 0xc0, 0x70, 0x83, 0x15, 0xbe, 0x4b, 0x46, 0xb3, 0xbd,
  0x69, 0x75, 0xb8, 0xbe, 0xac, 0x00, 0x22, 0xbd, 0x38, 0x4e, 0x5b, 0xbd,
  0xb0, 0x46, 0x97, 0xbd, 0x0c, 0x14, 0xa0, 0x3e, 0x77, 0x1f, 0x24, 0xbe,
  0xf0, 0x4c, 0xf1, 0xbc, 0xa5, 0x5e, 0x1a, 0x3d, 0xa5, 0x9f, 0x69, 0xbe,
  0xed, 0x1d, 0x02, 0x3b, 0x64, 0x11, 0xf0, 0xbd, 0x4e, 0xba, 0xa7, 0xbc,
  0x4a, 0xa2, 0xe8, 0xbb, 0xa3, 0x70, 0x33, 0xbd, 0x45, 0xa9, 0xa9, 0x3d,
  0xe8, 0x2e, 0xe0, 0x3d, 0xd4, 0x64, 0xc2, 0x3d, 0x67, 0xa2, 0x80, 0x3e,
  0x89, 0x8a, 0xa7, 0xbd, 0x67, 0x3a, 0xa6, 0xbd, 0x5d, 0x64, 0xd3, 0x3e,
  0xd5, 0x5e, 0x00, 0x3f, 0xa3, 0x11, 0x31, 0x3e, 0x21, 0x92, 0xbc, 0xbd,
  0xc0, 0x18, 0x72, 0xbd, 0xf6, 0xe5, 0xc7, 0x3e, 0x5d, 0x2e, 0xe5, 0xbe,
  0xc2, 0x5f, 0x26, 0x3d, 0x25, 0xfd, 0xef, 0xbd, 0x3e, 0x00, 0x99, 0xc1,
  0x38, 0x1a, 0x10, 0xbc, 0x85, 0x5c, 0x4f, 0xbd, 0x99, 0x47, 0x1e, 0xbd,
  0xb9, 0x7b, 0x9b, 0xbc, 0xb0, 0x8d, 0x1b, 0x3d, 0x5c, 0x0b, 0x8f, 0x3d,
  0xd5, 0xdf, 0x3a, 0x39, 0x2a, 0xfa, 0xd1, 0x3d, 0x7f, 0xec, 0x85, 0xbd,
  0x42, 0xa9, 0x36, 0x3d, 0x74, 0x72, 0x2b, 0x39, 0x48, 0xb5, 0x05, 0x3c,
  0x39, 0x51, 0x04, 0x3f, 0xb1, 0xb5, 0x87, 0x3c, 0x8b, 0x5a, 0x81, 0x3d,
  0xec, 0x79, 0x9b, 0xbc, 0x39, 0xd6, 0x25, 0x3c, 0x74, 0x9d, 0x98, 0xbd,
  0x48, 0xf9, 0x7d, 0xbd, 0x37, 0x14, 0x7f, 0xbe, 0x7d, 0x99, 0x05, 0xbe,
  0x5e, 0x35, 0x05, 0xbe, 0x30, 0x54, 0x9f, 0xbe, 0x22, 0x05, 0x1d, 0xbf,
  0x70, 0xd6, 0xf9, 0xbd, 0x18, 0xe3, 0xba, 0xbd, 0xd0, 0x16, 0x24, 0xbd,
  0xa6, 0xb6, 0x69, 0xbe, 0x71, 0x39, 0xa1, 0x3d, 0xc6, 0x63, 0x46, 0xbd,
  0x9e, 0x70, 0x9c, 0xbb, 0xa2, 0x03, 0x08, 0xbf, 0x02, 0xaa, 0x10, 0xbb,
  0xa7, 0xaf, 0xe8, 0xbd, 0xbc, 0xb5, 0xbd, 0xbe, 0x0f, 0xdf, 0xff, 0xbb,
  0xd4, 0x4d, 0x41, 0x3d, 0x3a, 0x6e, 0x6a, 0x3b, 0xa5, 0x81, 0x75, 0x3e,
  0x86, 0x15, 0x9b, 0xbd, 0xe7, 0x6c, 0xbe, 0xbc, 0x03, 0xc4, 0x8f, 0xbd,
  0x69, 0x8b, 0x95, 0xbd, 0x8e, 0x04, 0x3c, 0xbc, 0x22, 0xe7, 0xfa, 0xbd,
  0x56, 0xa7, 0x2b, 0xbb, 0x22, 0xfc, 0x34, 0xbd, 0x6a, 0x3c, 0x0c, 0x3d,
  0xd5, 0x52, 0xc2, 0xbd, 0x6d, 0xe2, 0x9d, 0x3e, 0xc2, 0x87, 0x02, 0x3a,
  0x5b, 0x90, 0xc0, 0x3e, 0x0b, 0xf0, 0xd3, 0x3d, 0x3b, 0xae, 0x0d, 0x3e,
  0x57, 0xe9, 0x94, 0x3f, 0x74, 0x53, 0xe5, 0xbe, 0xff, 0xd5, 0x8d, 0x3e,
  0x1f, 0x44, 0x7a, 0x3c, 0x4a, 0xad, 0x40, 0xbc, 0x3f, 0xc0, 0x78, 0x3c,
  0xef, 0x01, 0x11, 0xbe, 0x39, 0xb2, 0xb4, 0x3b, 0x1e, 0x53, 0x97, 0x3d,
  0xcd, 0x38, 0x88, 0xc1, 0x1c, 0x4e, 0x00, 0x3e, 0xd3, 0x17, 0xce, 0x3d,
  0x92, 0x28, 0x88, 0x3e, 0x4a, 0x96, 0xfb, 0x3c, 0x44, 0xa2, 0x17, 0x3e,
  0x66, 0x1d, 0x0f, 0xbd, 0x6a, 0xd2, 0x2a, 0xbe, 0x8a, 0x85, 0x3b, 0xbe,
  0x04, 0x28, 0x86, 0xbb, 0xee, 0x72, 0x94, 0xbc, 0x0d, 0xdf, 0x91, 0xbd,
  0x0b, 0x1f, 0x21, 0x3c, 0x73, 0x0f, 0x42, 0x3f, 0x97, 0xbe, 0x01, 0xbd,
  0x67, 0x86, 0x8c, 0x3d, 0x83, 0xc4, 0x16, 0x3e, 0x64, 0xee, 0x07, 0x3c,
  0xab, 0x97, 0x2b, 0xbe, 0xdf, 0xf0, 0xb8, 0xbd, 0x5e, 0x25, 0x03, 0x3e,
  0xa0, 0x63, 0x4c, 0xbc, 0xab, 0xad, 0x8e, 0x3a, 0xd0, 0x68, 0x5f, 0xbf,
  0xf0, 0xf0, 0xf1, 0xbe, 0xee, 0x56, 0xc5, 0x3e, 0x1f, 0x52, 0x79, 0x3c,
  0x67, 0xe5, 0x12, 0x3d, 0xf5, 0x26, 0xc2, 0xbe, 0xf5, 0x52, 0xdc, 0x3e,
  0x40, 0x97, 0xe7, 0x3c, 0x1a, 0x0f, 0x06, 0xbd, 0x76, 0x2d, 0x26, 0x42,
  0xd4, 0x96, 0x8f, 0xbd, 0x36, 0x2e, 0xbf, 0xbc, 0x9e, 0x6d, 0xe8, 0x3c,
  0xed, 0xc2, 0x5e, 0xbd, 0x44, 0x2a, 0xaa, 0xbd, 0xd0, 0x31, 0x1a, 0xbe,
  0x6a, 0x9a, 0x22, 0x3d, 0xd0, 0xad, 0x87, 0xbe, 0x71, 0xf0, 0x56, 0x3b,
  0xe5, 0x89, 0x09, 0xbc, 0xdc, 0xae, 0x7e, 0x3d, 0x8a, 0x35, 0xf7, 0xbb,
  0xe7, 0xac, 0x26, 0xbf, 0xa6, 0x26, 0xe0, 0xbb, 0xdd, 0xa0, 0xb8, 0xbc,
  0xfa, 0xd1, 0xb6, 0xbd, 0xff, 0x69, 0xc5, 0xbc, 0x60, 0xde, 0x2c, 0xbe,
  0x3a, 0xff, 0xcc, 0x3c, 0xde, 0x7e, 0xa9, 0xbe, 0x08, 0x0c, 0x7c, 0x3d,
  0x8a, 0x84, 0x1c, 0xbe, 0xdd, 0x2d, 0x36, 0xbf, 0xa4, 0xed, 0x4d, 0x3f,
  0x2e, 0x3b, 0xf6, 0xbe, 0x56, 0x38, 0xe4, 0x3d, 0x13, 0xbd, 0x1d, 0xbd,
  0x56, 0x92, 0xe6, 0x3c, 0x90, 0x23, 0x2c, 0x3e, 0xd2, 0x75, 0x94, 0x3c,
  0xf4, 0xf0, 0xd6, 0xbd, 0xcc, 0x5a, 0x5d, 0x41, 0xc2, 0x7f, 0xbc, 0xbd,
  0x4b, 0xf9, 0x20, 0x3d, 0x1e, 0xba, 0x45, 0xbe, 0x05, 0x85, 0x57, 0xbd,
  0xfa, 0x66, 0x00, 0xbd, 0xf1, 0xf9, 0x74, 0xbb, 0xb0, 0x29, 0xbe, 0xbd,
  0x36, 0x66, 0x58, 0xbd, 0x2c, 0x68, 0x01, 0xbd, 0xe2, 0x86, 0xc4, 0x3d,
  0x5c, 0xbd, 0x55, 0x3d, 0x0d, 0x3c, 0x74, 0x3b, 0xe0, 0xf5, 0x99, 0xbe,
  0xd2, 0x97, 0x46, 0x3d, 0xdf, 0x4f, 0x08, 0x3c, 0xc3, 0xd9, 0xa5, 0x3b,
  0x2c, 0x53, 0x43, 0xbd, 0x4e, 0xc8, 0x84, 0x3e, 0xa1, 0x4a, 0xd3, 0x3b,
  0x2e, 0x8a, 0x83, 0x3e, 0xc5, 0x2e, 0xb9, 0x3d, 0xe2, 0x6e, 0xba, 0x3d,
  0x12, 0x90, 0x60, 0x3f, 0x77, 0x48, 0xf9, 0x3e, 0xd4, 0xcd, 0xb3, 0x3e,
  0x43, 0xf9, 0x5e, 0x3d, 0x8b, 0x6b, 0x44, 0x3c, 0x20, 0xb8, 0xc6, 0x3d,
  0x81, 0xb9, 0xf5, 0xbd, 0xa5, 0x5b, 0xce, 0x3c, 0x60, 0x0d, 0x37, 0x3d,
  0xa9, 0x12, 0xeb, 0xc0, 0xf0, 0x5f, 0x8f, 0x3d, 0x43, 0x9a, 0xbe, 0x3c,
  0x66, 0x51, 0x14, 0x3e, 0xf2, 0xaf, 0x2a, 0x3d, 0x7e, 0x75, 0xad, 0x3d,
  0x0c, 0x4b, 0xa7, 0xbd, 0x1d, 0x27, 0x93, 0xbe, 0x5e, 0x55, 0x91, 0xbd,
  0xdd, 0x55, 0xf6, 0x3c, 0xac, 0xb1, 0x08, 0xbd, 0x1b, 0xac, 0x2a, 0xbd,
  0x94, 0xaa, 0xbc, 0x3b, 0x14, 0x4e, 0xda, 0x3e, 0x3f, 0x20, 0x10, 0x3c,
  0x4a, 0x2c, 0x32, 0x3c, 0x84, 0x95, 0x82, 0x3d, 0x36, 0x83, 0x80, 0x3d,
  0xb2, 0xc4, 0x91, 0x3e, 0x7b, 0x99, 0xd6, 0x3b, 0xf1, 0x70, 0xef, 0x3e,
  0x9a, 0xc6, 0x3a, 0xbd, 0x87, 0x60, 0xb5, 0x3d, 0xb5, 0x9d, 0x64, 0x3f,
  0x42, 0xb7, 0x43, 0xbf, 0x5d, 0x43, 0xa8, 0x3e, 0xde, 0x7b, 0x7b, 0x3d,
  0x55, 0x07, 0x6d, 0x3d, 0xa3, 0xfa, 0x41, 0x3d, 0x28, 0xb7, 0x84, 0xbc,
  0x07, 0xfd, 0x53, 0x3c, 0xc8, 0xd4, 0x64, 0xbc, 0x17, 0x8e, 0x3c, 0xc1,
  0x4a, 0x39, 0x83, 0x3d, 0xe9, 0x75, 0xa1, 0xbd, 0x8e, 0x6c, 0x33, 0x3e,
  0x54, 0x98, 0xf7, 0xbb, 0xc4, 0x2f, 0xcf, 0x3d, 0x15, 0x3f, 0x7f, 0xbd,
  0x53, 0xfa, 0x38, 0x3e, 0xbf, 0x86, 0x03, 0xbe, 0x59, 0x69, 0x04, 0xbc,
  0x97, 0xd5, 0x90, 0xbd, 0x15, 0x3d, 0x9f, 0x3d, 0x7f, 0x63, 0x48, 0xbc,
  0x51, 0xe9, 0xc0, 0x3e, 0xc9, 0xd5, 0x65, 0x3d, 0x7e, 0x5d, 0xef, 0x3b,
  0x33, 0x0a, 0xff, 0x3d, 0x6c, 0x85, 0x99, 0xbd, 0xa3, 0xfd, 0x18, 0x3d,
  0x91, 0x0d, 0x49, 0xbd, 0x75, 0x36, 0xff, 0x3e, 0xdc, 0x0d, 0x63, 0x3c,
  0xc3, 0x06, 0x00, 0x3e, 0x52, 0x38, 0x92, 0x3f, 0x2c, 0xb4, 0x0f, 0x3c,
  0x54, 0xe8, 0xb7, 0x3d, 0x6f, 0xe7, 0x56, 0x3d, 0x51, 0x84, 0x73, 0x3d,
  0xf2, 0x65, 0x44, 0x3e, 0xf6, 0x17, 0x87, 0xbe, 0x90, 0xae, 0x82, 0xbc,
  0x26, 0x3c, 0xdf, 0x3d, 0x98, 0x47, 0x0d, 0x41, 0x67, 0xcc, 0x34, 0x3e,
  0x44, 0x70, 0xb6, 0x3d, 0x3b, 0xb3, 0x42, 0x3e, 0x35, 0x9d, 0xa1, 0x3d,
  0x21, 0x02, 0x28, 0x3d, 0x7e, 0x7c, 0x99, 0x3d, 0x68, 0x3e, 0x05, 0xbe,
  0x5a, 0x65, 0x1f, 0x3e, 0x99, 0x06, 0xc6, 0x3c, 0x3c, 0xc3, 0xac, 0xbd,
  0x87, 0x2c, 0xaf, 0x3c, 0xc1, 0xa0, 0x00, 0x38, 0x4f, 0x55, 0x0d, 0xbd,
  0xd4, 0xec, 0xcb, 0x3c, 0x31, 0xe1, 0x9a, 0xbd, 0x45, 0x42, 0x46, 0xbd,
  0x74, 0xf0, 0x3e, 0x3b, 0x48, 0x89, 0x65, 0x3e, 0x09, 0x10, 0xc2, 0x3c,
  0x41, 0x5a, 0x01, 0x3f, 0xc5, 0x4f, 0xf2, 0x3d, 0xe0, 0xce, 0x4e, 0xbc,
  0xd1, 0xe0, 0x98, 0x3f, 0xbe, 0xcc, 0x14, 0xbf, 0xaa, 0x86, 0xec, 0x3e,
  0x35, 0xc7, 0xc4, 0x3b, 0x18, 0x37, 0x88, 0xbd, 0xc2, 0xea, 0x9c, 0xbe,
  0x82, 0x58, 0x29, 0xbe, 0x91, 0xe6, 0x11, 0x3c, 0xa5, 0xf6, 0x3b, 0xbd,
  0x30, 0x76, 0xb5, 0xc1, 0xa7, 0x1e, 0xf7, 0x3d, 0x2a, 0x36, 0x55, 0xbd,
  0x9d, 0xb9, 0xaa, 0x3e, 0x1b, 0x25, 0xfd, 0xbc, 0x4b, 0xb8, 0x1a, 0x3e,
  0x5f, 0x8a, 0xa1, 0xbd, 0x90, 0xaa, 0x8c, 0x3c, 0x45, 0xd2, 0x11, 0xbe,
  0xd4, 0xf0, 0x07, 0xbd, 0x4c, 0x5b, 0xcf, 0x3a, 0xe3, 0x86, 0xd7, 0xbd,
  0x39, 0x17, 0x05, 0xbc, 0xbe, 0x8b, 0xf5, 0x3e, 0xa0, 0xf8, 0xf4, 0x3c,
  0x75, 0x0b, 0x08, 0x3d, 0x83, 0xea, 0x87, 0x3d, 0x09, 0x1a, 0x5d, 0xbc,
  0x0b, 0x40, 0x7a, 0x3d, 0xb2, 0xd9, 0x70, 0xbc, 0xbc, 0xda, 0xb5, 0x3e,
  0xf4, 0x16, 0x11, 0xbd, 0xba, 0xa4, 0xd2, 0x3d, 0x1c, 0x22, 0x81, 0x3f,
  0xb3, 0xe0, 0xcd, 0x3e, 0xf8, 0x2a, 0x8e, 0xbe, 0xd9, 0x95, 0x3c, 0xbd,
  0xe7, 0x77, 0x23, 0x3d, 0x4b, 0xcf, 0x14, 0x3e, 0x99, 0x82, 0xa1, 0xbe,
  0x30, 0x89, 0x12, 0xbd, 0xc3, 0x1d, 0xd9, 0x3d, 0x3a, 0x57, 0x87, 0xc1,
  0x79, 0x48, 0x03, 0x3e, 0x83, 0xdc, 0xc1, 0x3d, 0xee, 0xf3, 0xeb, 0x3d,
  0xcb, 0x7f, 0x95, 0x3d, 0x34, 0x14, 0x05, 0x3d, 0x4c, 0xaa, 0x05, 0x3e,
  0xaf, 0x9a, 0x01, 0x3e, 0xc8, 0x84, 0x56, 0x3e, 0x70, 0x07, 0x36, 0x3d,
  0x6c, 0x33, 0xf7, 0xbc, 0xad, 0x39, 0x7c, 0x3d, 0xe7, 0x2d, 0xbe, 0x3b,
  0x7e, 0x34, 0x83, 0x3e, 0xdf, 0x89, 0xf6, 0x3b, 0xfc, 0x61, 0xda, 0xbc,
  0x9a, 0x67, 0x2f, 0xbd, 0xab, 0xd2, 0x8d, 0xbd, 0x4b, 0x03, 0x65, 0x3e,
  0x82, 0x32, 0x8d, 0x3d, 0x34, 0x30, 0xb2, 0x3e, 0x5b, 0x97, 0x83, 0x3d,
  0xf8, 0x52, 0x0d, 0x3c, 0x45, 0x55, 0x81, 0x3f, 0xbf, 0x49, 0xd0, 0xbe,
  0xc6, 0xa6, 0xcf, 0x3e, 0x64, 0x16, 0xeb, 0x3c, 0x48, 0xdd, 0x92, 0xbd,
  0x2f, 0x31, 0x4f, 0x3d, 0xb5, 0x5a, 0x78, 0xbe, 0xcd, 0x2a, 0x07, 0x3d,
  0xc4, 0xc4, 0x15, 0x3d, 0x44, 0x2c, 0xc0, 0xc0, 0xe1, 0xb2, 0x19, 0x3d,
  0xb7, 0x9d, 0xc3, 0x3d, 0x93, 0x09, 0x37, 0x3e, 0x6a, 0x0c, 0x98, 0x3b,
  0xcb, 0x5b, 0x7f, 0x3d, 0xf6, 0xb3, 0x01, 0xbd, 0x38, 0x97, 0xab, 0xbe,
  0x8d, 0x4a, 0x24, 0xbe, 0xd2, 0x13, 0xe6, 0xbc, 0x99, 0x57, 0x01, 0x3d,
  0xed, 0x43, 0x30, 0xbe, 0x52, 0xa8, 0x8b, 0xbc, 0x84, 0x90, 0x31, 0x3f,
  0xa9, 0x29, 0xbe, 0xbc, 0x90, 0x32, 0x58, 0x3d, 0x18, 0x7b, 0xd9, 0xbd,
  0xe0, 0x9a, 0x81, 0xbd, 0x8f, 0x0e, 0x24, 0x3d, 0x54, 0x52, 0x39, 0x3d,
  0xdd, 0x26, 0xda, 0xbd, 0xb8, 0x3c, 0x3f, 0xbd, 0x43, 0xda, 0x9e, 0xbd,
  0xc6, 0xcd, 0xdb, 0xbc, 0x0b, 0x02, 0x19, 0x3f, 0xea, 0x5b, 0x5e, 0xbe,
  0x33, 0x28, 0xb4, 0xbd, 0x1f, 0x45, 0x45, 0xbd, 0xb2, 0x44, 0xa0, 0x3e,
  0x1e, 0xca, 0x74, 0xbe, 0xa6, 0x43, 0x6f, 0xbc, 0x86, 0xa3, 0x87, 0xbc,
  0x03, 0x57, 0x20, 0xc1, 0x50, 0xb2, 0x0b, 0xbd, 0xcb, 0xf6, 0x94, 0x3c,
  0x50, 0x9c, 0xbb, 0xbd, 0x16, 0x6d, 0x9e, 0x3c, 0x6e, 0x8f, 0x44, 0x3d,
  0x9a, 0x69, 0x9a, 0x3d, 0x0b, 0x98, 0x92, 0xbe, 0x5d, 0xb9, 0x05, 0x3e,
  0x26, 0xe8, 0x16, 0x3d, 0x1e, 0x29, 0x32, 0x3d, 0xb6, 0x6d, 0x19, 0xbe,
  0x3b, 0xc4, 0x41, 0x3c, 0x68, 0xae, 0x60, 0xbe, 0x23, 0x21, 0x54, 0xbd,
  0x4d, 0x0e, 0xb4, 0x3d, 0xe7, 0x4f, 0x69, 0xbd, 0x42, 0x23, 0x4c, 0x3d,
  0x81, 0x3a, 0xa6, 0x3d, 0x5f, 0x0a, 0x1b, 0x3d, 0x2d, 0x56, 0xc9, 0x3c,
  0x73, 0xa5, 0x9b, 0x3d, 0x07, 0x62, 0x16, 0xbd, 0x63, 0x8e, 0x11, 0xbf,
  0x24, 0x8d, 0xf2, 0x3e, 0x88, 0x4b, 0x78, 0xbe, 0x99, 0xf7, 0x01, 0xbc,
  0xdb, 0x27, 0x44, 0xbd, 0x3d, 0x33, 0x99, 0x3e, 0x41, 0x7f, 0x97, 0xbe,
  0x39, 0x77, 0x27, 0xbd, 0x5e, 0x43, 0x4d, 0x3c, 0x26, 0x97, 0xd2, 0xbf,
  0xf9, 0x6a, 0x7d, 0x3d, 0x23, 0x36, 0x88, 0x3b, 0xd0, 0xdb, 0x99, 0xbd,
  0x90, 0x77, 0x24, 0x3b, 0xb7, 0x23, 0xb8, 0x3d, 0xbd, 0x20, 0xd2, 0x3d,
  0x5a, 0x3a, 0x90, 0x38, 0x5a, 0x93, 0x86, 0x3e, 0xf7, 0x64, 0x42, 0xbc,
  0x3e, 0x64, 0x9f, 0x3d, 0xe5, 0x0a, 0xa5, 0xbd, 0xd7, 0x9b, 0x0c, 0xba,
  0x46, 0xf3, 0x01, 0xbf, 0xc4, 0xc0, 0xc8, 0xbd, 0xb6, 0xdc, 0x8d, 0x3d,
  0x53, 0x53, 0xfd, 0xbd, 0x37, 0xda, 0xac, 0x3d, 0x00, 0x15, 0x9a, 0x3d,
  0xfa, 0x1d, 0x52, 0x3c, 0x1b, 0x64, 0x15, 0xbf, 0x15, 0x21, 0x1e, 0xbe,
  0xb8, 0x12, 0x1c, 0xbe, 0xac, 0x5c, 0x63, 0xbf, 0x5d, 0x91, 0xda, 0xbb,
  0xd5, 0x1a, 0x03, 0xbf, 0x25, 0x9e, 0xe8, 0xbd, 0xa8, 0x90, 0x07, 0xbd,
  0x02, 0xaf, 0x08, 0x3e, 0x56, 0xdb, 0x78, 0xbe, 0x02, 0x97, 0x2b, 0xbd,
  0x11, 0xe0, 0x23, 0xbe, 0x8b, 0x2f, 0x60, 0xc1, 0xa2, 0x88, 0xd1, 0xbd,
  0x52, 0xd9, 0xaa, 0xbd, 0xab, 0xda, 0xa2, 0xbe, 0x43, 0x96, 0x1b, 0xbd,
  0x8d, 0x77, 0xfe, 0xbb, 0x37, 0xcf, 0x8a, 0x3d, 0xdd, 0xf8, 0x5c, 0x3e,
  0xb9, 0x83, 0xb4, 0x3d, 0x15, 0xa3, 0xa7, 0xbc, 0x8b, 0xa1, 0x7a, 0xbc,
  0xbc, 0x77, 0xc1, 0xbd, 0xcb, 0x73, 0x34, 0xbc, 0xde, 0xf0, 0x08, 0xbf,
  0x87, 0xfb, 0x15, 0xbd, 0xb2, 0xd8, 0x90, 0xbc, 0xce, 0xde, 0xff, 0xff,
  0x04, 0x00, 0x00, 0x00, 0x80, 0x00, 0x00, 0x00, 0x77, 0x45, 0x00, 0xc1,
  0x70, 0x63, 0x4e, 0xc0, 0xc5, 0xe5, 0xe5, 0x40, 0x3a, 0xd1, 0xce, 0xc0,
  0x7e, 0x4c, 0x09, 0xc1, 0xc0, 0xea, 0xe2, 0x40, 0x4e, 0x30, 0x41, 0x41,
  0x8b, 0x0b, 0x45, 0x41, 0x6a, 0x94, 0x9a, 0xc0, 0x3c, 0x08, 0x1a, 0xbf,
  0x2c, 0x3d, 0x3b, 0xbc, 0x94, 0xe0, 0x6e, 0x41, 0x51, 0x91, 0x7b, 0xc1,
  0xfa, 0x07, 0xb9, 0x3e, 0xd1, 0x02, 0xc0, 0xc0, 0x48, 0x65, 0x3e, 0xc1,
  0x53, 0x43, 0x1b, 0xc0, 0xc3, 0x74, 0x61, 0x41, 0x71, 0xb6, 0x75, 0xc0,
  0xaa, 0xad, 0xdf, 0x40, 0xb5, 0xed, 0x1e, 0xc1, 0x42, 0x7d, 0x41, 0x40,
  0x4a, 0x69, 0x22, 0x41, 0xd2, 0x81, 0x02, 0xc1, 0xf7, 0xda, 0x25, 0xc1,
  0xda, 0x30, 0x0d, 0xc1, 0x04, 0xef, 0x17, 0xc1, 0x13, 0xd7, 0x0c, 0xc1,
  0x00, 0xe9, 0x5c, 0xc0, 0x6f, 0x05, 0x22, 0x40, 0x91, 0xce, 0x9c, 0xc0,
  0xaf, 0xa9, 0x3f, 0x41, 0x5a, 0xdf, 0xff, 0xff, 0x04, 0x00, 0x00, 0x00,
  0x00, 0x10, 0x00, 0x00, 0xbe, 0x3c, 0x78, 0xbe, 0x3c, 0xab, 0x38, 0xbc,
  0x74, 0x95, 0x07, 0x3d, 0x05, 0xd6, 0x69, 0x3e, 0x42, 0xa8, 0xc1, 0xbd,
  0x31, 0x10, 0xaf, 0x3e, 0x63, 0x16, 0xe2, 0xbb, 0x1f, 0x9b, 0xcb, 0xbd,
  0xc7, 0x3d, 0x7f, 0xbd, 0x82, 0xb5, 0x3c, 0xbe, 0x31, 0x1f, 0x13, 0xbf,
  0xec, 0xaf, 0x45, 0xbf, 0xca, 0xba, 0x5f, 0x3d, 0xc6, 0x65, 0xe4, 0xbe,
  0x72, 0xef, 0x40, 0xbe, 0x5f, 0x21, 0x52, 0xbd, 0x33, 0xd0, 0x83, 0xbe,
  0x99, 0xa3, 0xa3, 0x3c, 0xfd, 0x89, 0xcc, 0x3d, 0xae, 0xbd, 0x0a, 0xbd,
  0xf7, 0xa8, 0xc4, 0xbd, 0x9a, 0xfa, 0xd1, 0xbe, 0xa6, 0x11, 0xb0, 0x3c,
  0xb0, 0xa1, 0x05, 0x3c, 0x36, 0x84, 0x06, 0xbe, 0xd8, 0x3c, 0xa8, 0xbe,
  0xa0, 0x8c, 0xd8, 0xbd, 0xa5, 0xd2, 0x95, 0xbe, 0x69, 0x36, 0x4f, 0xbd,
  0x86, 0x61, 0xb5, 0xbe, 0x49, 0xfa, 0xd3, 0xbf, 0xba, 0x85, 0x9a, 0xbe,
  0x29, 0x9b, 0x6e, 0x3e, 0x62, 0x7b, 0xf8, 0x3b, 0x2a, 0x47, 0x4b, 0xbe,
  0xc1, 0x81, 0x8a, 0x3e, 0xc7, 0x7f, 0x93, 0x3d, 0xd7, 0x4d, 0x0f, 0x3f,
  0xb9, 0xc9, 0x1f, 0x3b, 0x27, 0x3f, 0xd9, 0x3d, 0x3c, 0x86, 0x71, 0xbe,
  0x76, 0xe3, 0x97, 0x3d, 0x3f, 0x24, 0xbc, 0x3e, 0x4a, 0x29, 0x00, 0x3f,
  0xf7, 0x58, 0xa4, 0xbe, 0x56, 0x24, 0x1e, 0x3f, 0x2a, 0xe2, 0xb4, 0xbc,
  0xf6, 0xe4, 0x51, 0x3c, 0xc0, 0x48, 0x73, 0x3e, 0xbe, 0xb8, 0x35, 0xbe,
  0xba, 0xfa, 0x39, 0x3d, 0x40, 0x53, 0x79, 0xbd, 0xcf, 0x80, 0xc9, 0x3d,
  0x0b, 0x19, 0xe2, 0x3e, 0x42, 0x79, 0x4b, 0xbc, 0x60, 0x12, 0x04, 0xbb,
  0x4c, 0x61, 0x8c, 0x3e, 0x4d, 0x9d, 0x7e, 0x3d, 0x91, 0x16, 0x7b, 0xbe,
  0xb9, 0x62, 0x9f, 0x3d, 0x8d, 0x46, 0x1f, 0x3e, 0x3d, 0xc0, 0x72, 0x3d,
  0x23, 0x61, 0x1a, 0x40, 0xe5, 0x87, 0x0e, 0x3f, 0x3e, 0xf7, 0xa7, 0x3d,
  0x49, 0xc0, 0x25, 0x3c, 0x43, 0x07, 0x44, 0x3d, 0x84, 0x86, 0x13, 0xbf,
  0x33, 0xbd, 0x70, 0x3d, 0xac, 0xc2, 0x10, 0xbf, 0xac, 0xf4, 0x95, 0x3b,
  0x52, 0x6b, 0x6c, 0x3d, 0xc1, 0xd5, 0x9b, 0xbd, 0x57, 0x85, 0x6a, 0x3e,
  0x35, 0x02, 0x6b, 0x3e, 0x13, 0x54, 0xad, 0x3e, 0x0a, 0x31, 0xaf, 0x3d,
  0xce, 0x04, 0x24, 0x3e, 0x68, 0xc0, 0x2a, 0x3e, 0x07, 0x2d, 0x6f, 0x3d,
  0xcf, 0x52, 0xa7, 0x3e, 0x0c, 0x26, 0x92, 0x3b, 0xea, 0x82, 0xdc, 0xbd,
  0xdc, 0xc0, 0x67, 0xbd, 0x4c, 0xeb, 0x98, 0x3d, 0x67, 0x29, 0x2c, 0x3e,
  0xcd, 0xbe, 0x30, 0x3d, 0x9f, 0x98, 0xf7, 0xbc, 0x81, 0x72, 0xb4, 0x3d,
  0x67, 0xb4, 0x5e, 0xbe, 0xa5, 0x1e, 0xb0, 0x3c, 0x02, 0x72, 0x84, 0xbe,
  0xdf, 0xc4, 0xd0, 0xbe, 0xb5, 0xf6, 0xab, 0x3e, 0x47, 0x62, 0x8f, 0x3f,
  0xd7, 0x3b, 0x9e, 0x3e, 0x24, 0x6e, 0x57, 0xbd, 0x78, 0xff, 0x98, 0xbc,
  0x44, 0x5c, 0xbb, 0x3d, 0xde, 0x18, 0xe0, 0x3e, 0xd6, 0x24, 0x98, 0x3d,
  0x56, 0x4f, 0x1c, 0x3f, 0x08, 0x43, 0x35, 0x3c, 0x40, 0xfd, 0xff, 0x3c,
  0x9e, 0xff, 0xb0, 0x3c, 0x26, 0x89, 0x5d, 0xbe, 0x6e, 0x6b, 0x33, 0x3f,
  0xd3, 0xe3, 0x3a, 0x3f, 0x3f, 0x60, 0x67, 0x3e, 0xf2, 0xd9, 0x15, 0x3f,
  0xed, 0x69, 0x6d, 0xbe, 0x81, 0x16, 0x03, 0xbd, 0x2b, 0x09, 0x8e, 0xbe,
  0x47, 0x9b, 0xbf, 0xbc, 0xa4, 0x2d, 0x8f, 0x3d, 0x2d, 0x72, 0xb5, 0xbd,
  0x4b, 0xb5, 0x4d, 0x3d, 0xdb, 0xde, 0xb3, 0x3e, 0xf4, 0xec, 0x9c, 0x3b,
  0xd6, 0x1b, 0xe7, 0x3c, 0x59, 0x8b, 0x5a, 0x3e, 0x97, 0xd2, 0x57, 0x3e,
  0xe8, 0x88, 0x0d, 0xbd, 0xe2, 0x95, 0xa1, 0x3e, 0xbc, 0x10, 0xb3, 0x3e,
  0x02, 0xc9, 0xdd, 0xbd, 0xe2, 0x77, 0xbe, 0x3f, 0x85, 0xcc, 0xf0, 0x3e,
  0xf1, 0xe3, 0x06, 0xbd, 0x0b, 0xfd, 0xe7, 0xbb, 0xc1, 0xd7, 0x1a, 0x3e,
  0xe6, 0x5e, 0x3d, 0xbf, 0xbd, 0xf0, 0xab, 0xbd, 0x03, 0xbc, 0x90, 0x3e,
  0x6b, 0x82, 0x22, 0xbc, 0x0c, 0x14, 0x97, 0xbd, 0x15, 0x2a, 0xd1, 0x3e,
  0x44, 0xee, 0x5d, 0xbd, 0xe8, 0x50, 0x08, 0xbf, 0xe6, 0xa1, 0xf7, 0xbe,
  0x28, 0x27, 0xe1, 0x3e, 0xa0, 0x95, 0x75, 0xbe, 0xa3, 0x1d, 0x56, 0xbd,
  0x55, 0x09, 0xf1, 0xbc, 0x65, 0xe0, 0xaf, 0xbe, 0x6c, 0x36, 0x3b, 0x3e,
  0x9a, 0x6a, 0xd5, 0x3d, 0xfd, 0x3f, 0xd3, 0x3d, 0x65, 0x8d, 0x6d, 0xbd,
  0x11, 0xc9, 0xb3, 0xbe, 0x06, 0x03, 0x18, 0x3c, 0x2e, 0x91, 0xb6, 0x3b,
  0x1d, 0x84, 0x0a, 0xbe, 0x28, 0x20, 0x91, 0xbd, 0x1b, 0x87, 0xc6, 0x3d,
  0xd5, 0x3f, 0x65, 0xbe, 0x13, 0x3b, 0x6c, 0xbe, 0xe2, 0xb2, 0x68, 0xbc,
  0x00, 0x90, 0x9c, 0xbf, 0x6e, 0x86, 0x98, 0xbe, 0xd5, 0xd6, 0x7d, 0x3e,
  0xeb, 0x10, 0x61, 0x3c, 0xac, 0x1c, 0x92, 0x3d, 0xf9, 0x13, 0xbe, 0xbe,
  0x9d, 0x46, 0xe6, 0xbd, 0x11, 0xc0, 0x2f, 0x3e, 0x61, 0x8a, 0x90, 0xbb,
  0xe8, 0xa4, 0x5d, 0x3a, 0x63, 0x37, 0xf9, 0x3e, 0x7a, 0xb4, 0x8b, 0x3e,
  0xee, 0x72, 0x26, 0xbf, 0x05, 0x8b, 0xb7, 0xbe, 0x06, 0x6c, 0x26, 0x3e,
  0x67, 0x6b, 0x7b, 0xbe, 0x4f, 0x9e, 0x65, 0x3e, 0x6b, 0x71, 0x3f, 0xbd,
  0xb5, 0x7c, 0xd7, 0xbe, 0x93, 0xe0, 0xe1, 0x3d, 0xba, 0xde, 0x5e, 0x3d,
  0x37, 0xba, 0x27, 0x3e, 0x38, 0x75, 0x56, 0xbd, 0x84, 0x67, 0x85, 0xbe,
  0xe9, 0x15, 0xb6, 0x3c, 0xeb, 0x5c, 0x51, 0x3c, 0xc7, 0x93, 0xae, 0xbd,
  0xbb, 0xf7, 0x58, 0xbe, 0xc9, 0x47, 0x92, 0x3d, 0x49, 0x98, 0x5f, 0xbe,
  0xee, 0x3a, 0x7b, 0xbe, 0x09, 0x24, 0x98, 0xbd, 0xef, 0x68, 0xd3, 0xbf,
  0x78, 0xbd, 0x99, 0x3e, 0x4d, 0x7b, 0x89, 0x3e, 0xa0, 0xd7, 0x22, 0xbc,
  0x5c, 0xb1, 0xe3, 0x3d, 0x65, 0x9b, 0x21, 0xbf, 0x2d, 0x8a, 0x2f, 0xbd,
  0x66, 0xe6, 0xd0, 0x3d, 0x16, 0x23, 0x05, 0xbc, 0xfe, 0xcb, 0xac, 0xbd,
  0x8c, 0x5a, 0x2a, 0x3e, 0xcf, 0x75, 0x59, 0xbd, 0x46, 0xd3, 0x17, 0xbf,
  0x39, 0x33, 0xce, 0xbe, 0x2f, 0x35, 0x9b, 0x3e, 0x92, 0x06, 0x53, 0xbe,
  0xcb, 0x36, 0x21, 0xbe, 0xe8, 0xa5, 0xd6, 0xbc, 0xd6, 0x99, 0x05, 0xbe,
  0x2a, 0x3f, 0x17, 0x3e, 0x7d, 0x83, 0xc0, 0x3d, 0x35, 0x54, 0xcd, 0x3d,
  0x45, 0x81, 0x54, 0xbd, 0x83, 0x6a, 0xd1, 0xbe, 0xbe, 0xa8, 0x16, 0xbd,
  0xbd, 0xae, 0xf8, 0x3b, 0x15, 0x5d, 0x17, 0xbe, 0xb1, 0xc9, 0x67, 0xbe,
  0xe7, 0x2b, 0x2f, 0x3e, 0x8e, 0xf4, 0x80, 0xbe, 0x91, 0x7a, 0x81, 0xbe,
  0x7e, 0xaf, 0xe7, 0xbd, 0x93, 0xb5, 0x29, 0xbf, 0xb3, 0xa4, 0xb1, 0xbe,
  0x49, 0x2f, 0xba, 0xbd, 0x76, 0xaf, 0x8d, 0xbb, 0xb3, 0xea, 0x1f, 0x3e,
  0xc6, 0xa3, 0x50, 0x3f, 0xf2, 0x01, 0xb0, 0xbd, 0x6f, 0x8f, 0x29, 0x3f,
  0x58, 0xa1, 0x9f, 0xbb, 0x05, 0x13, 0xb7, 0xbc, 0xe4, 0x4f, 0x21, 0x3f,
  0xad, 0x61, 0xd9, 0xbd, 0x7d, 0x10, 0x19, 0xbe, 0x32, 0x42, 0xb8, 0xbd,
  0xbf, 0xaa, 0x02, 0x3f, 0x76, 0x8c, 0xbc, 0xbe, 0x82, 0x3c, 0xcf, 0xbd,
  0xb9, 0x0d, 0xa1, 0xbc, 0xfa, 0x30, 0x9c, 0xbe, 0x8f, 0x35, 0x4e, 0x3e,
  0xdf, 0x9d, 0x8e, 0x3d, 0xef, 0x92, 0x15, 0x3e, 0x40, 0x9a, 0x72, 0xbc,
  0xdc, 0xe2, 0x8a, 0xbe, 0x10, 0x71, 0xab, 0x3c, 0x70, 0x66, 0xba, 0x3c,
  0xa6, 0x20, 0xda, 0xbc, 0xc2, 0x47, 0x7e, 0x3e, 0xe6, 0x9a, 0x80, 0x3e,
  0xf7, 0xfa, 0x34, 0x3e, 0x47, 0x13, 0x75, 0x3e, 0x07, 0x8f, 0xe0, 0x3a,
  0x03, 0x8d, 0x37, 0xbe, 0x65, 0x23, 0xb0, 0xbe, 0x73, 0xb2, 0x08, 0x3e,
  0x61, 0xb0, 0x16, 0xbc, 0x5e, 0x25, 0x90, 0xbd, 0x75, 0xff, 0xae, 0x3e,
  0x44, 0x8b, 0x9e, 0x3d, 0xb5, 0xfd, 0x18, 0x3f, 0x82, 0xf6, 0xdb, 0x3b,
  0x7c, 0x72, 0x82, 0x3d, 0x2e, 0xa3, 0x06, 0xbe, 0x5c, 0x5c, 0x5e, 0xbe,
  0xeb, 0x3a, 0x37, 0x3d, 0xc6, 0xfa, 0xe5, 0x3e, 0xfc, 0x68, 0xeb, 0xbd,
  0xf0, 0xf3, 0x9f, 0x3d, 0x69, 0xaa, 0x35, 0xbe, 0x70, 0xc2, 0x1b, 0xbd,
  0xbd, 0x4d, 0x81, 0x3e, 0xc2, 0xdf, 0x9f, 0xbd, 0x71, 0xe5, 0x5a, 0x3d,
  0xfe, 0x44, 0x66, 0xbd, 0x3a, 0x25, 0x02, 0xbe, 0xe5, 0x69, 0xd0, 0x3e,
  0x15, 0x19, 0xfe, 0xba, 0x0a, 0x24, 0x8c, 0x3c, 0x23, 0x94, 0x0c, 0x3e,
  0x16, 0x34, 0x9d, 0x3e, 0x27, 0x3e, 0x09, 0xbe, 0x3c, 0x42, 0xb4, 0x3e,
  0x5a, 0x9d, 0x87, 0x3e, 0xbe, 0xfc, 0x5b, 0xbe, 0x4e, 0x43, 0xa9, 0x3e,
  0xff, 0x92, 0x99, 0x3e, 0xaf, 0x74, 0x8e, 0x3e, 0xf7, 0xd4, 0x71, 0xbc,
  0x2a, 0xbf, 0x06, 0xbe, 0xa0, 0xf6, 0x2e, 0xbf, 0x6a, 0xb9, 0xef, 0xbd,
  0xa6, 0x21, 0x90, 0xbe, 0x7a, 0x7b, 0x13, 0xbb, 0xd5, 0xd0, 0x4c, 0xbd,
  0x9f, 0xcd, 0xea, 0xbd, 0x00, 0xfa, 0x4c, 0xbe, 0x3a, 0xeb, 0xc1, 0xbe,
  0xc9, 0x71, 0x99, 0xbf, 0x91, 0xc2, 0xa6, 0xbe, 0x0b, 0x71, 0xc5, 0xbe,
  0xfc, 0x7d, 0x0b, 0xbe, 0xb7, 0x33, 0x71, 0xbd, 0x0f, 0x9d, 0xd8, 0xbe,
  0x53, 0xe6, 0xe3, 0xba, 0x50, 0xb7, 0xf7, 0xba, 0x92, 0x88, 0x01, 0xbd,
  0xd8, 0x34, 0x2d, 0xbe, 0xea, 0x23, 0xac, 0xbe, 0xc7, 0x9e, 0x2f, 0xbd,
  0x3d, 0xf0, 0x62, 0x3c, 0x7f, 0xee, 0x49, 0xbe, 0x56, 0x0a, 0x7a, 0x3e,
  0x42, 0xd5, 0xef, 0xbc, 0xce, 0x05, 0xe7, 0x3d, 0x97, 0x37, 0x02, 0xbe,
  0x3c, 0x66, 0xa9, 0xbe, 0x01, 0x54, 0xa3, 0xbf, 0x70, 0x01, 0xbf, 0xbe,
  0xe6, 0xc8, 0x97, 0xbe, 0xa5, 0x48, 0xab, 0x3b, 0x85, 0xd2, 0x09, 0x3e,
  0x72, 0xae, 0xbb, 0x3e, 0x6d, 0x79, 0xc4, 0xbd, 0xca, 0xa2, 0x63, 0x3e,
  0x4e, 0xa8, 0x11, 0xbc, 0x53, 0x4a, 0x09, 0xbe, 0x9c, 0x76, 0x0d, 0x3f,
  0xfc, 0xb3, 0x2d, 0x3c, 0x21, 0x7b, 0x45, 0xbf, 0xa3, 0xd9, 0x1a, 0xbf,
  0xb2, 0x4a, 0xcf, 0x3e, 0x57, 0x67, 0x89, 0xbe, 0x6e, 0xb6, 0xfd, 0x3d,
  0x14, 0x4e, 0x01, 0x3b, 0x43, 0x6b, 0x06, 0xbe, 0x3f, 0x38, 0xb6, 0x3d,
  0xa7, 0xac, 0x84, 0x3b, 0x6e, 0x5d, 0xe5, 0x3d, 0x50, 0xff, 0x8b, 0xbd,
  0xbe, 0x42, 0xc5, 0xbe, 0x53, 0xdb, 0x26, 0x3d, 0xa4, 0x96, 0x88, 0x3a,
  0x7f, 0xcb, 0x53, 0xbe, 0x2c, 0x45, 0xba, 0xbe, 0xaa, 0xd0, 0x39, 0x3e,
  0x4a, 0x4f, 0x42, 0xbe, 0x42, 0x22, 0x94, 0xbe, 0xd1, 0xd0, 0x9b, 0x3d,
  0xcd, 0x0e, 0xd2, 0xbf, 0x83, 0x5f, 0x94, 0xbe, 0x9d, 0x27, 0xa3, 0xbe,
  0x8e, 0x64, 0x59, 0x3c, 0x89, 0x36, 0x47, 0x3d, 0x1a, 0x56, 0x03, 0xbf,
  0x00, 0x01, 0xef, 0x3c, 0x8a, 0x2d, 0x73, 0xbe, 0x56, 0x98, 0xc6, 0x3a,
  0x86, 0x69, 0xbf, 0xbd, 0xdb, 0xde, 0xea, 0x3b, 0x0a, 0xbd, 0xb6, 0x3d,
  0x57, 0x14, 0x28, 0xbf, 0xe3, 0x1d, 0x5d, 0x3e, 0xe9, 0x0a, 0x87, 0x3e,
  0x47, 0xaf, 0xf4, 0xbe, 0x2a, 0x76, 0x00, 0x3e, 0xf1, 0x6a, 0x62, 0x3c,
  0xe9, 0xbd, 0x9f, 0xbe, 0xcb, 0x0c, 0x55, 0x3c, 0x4c, 0xf5, 0x63, 0x3c,
  0xae, 0x7e, 0xe6, 0x3b, 0xc2, 0xac, 0x07, 0xbd, 0x73, 0xc9, 0xae, 0xbe,
  0x91, 0x6f, 0xa1, 0x3c, 0x9f, 0x44, 0x00, 0xbd, 0x73, 0x08, 0xea, 0xbd,
  0xf9, 0x54, 0x61, 0xbd, 0xb8, 0xc7, 0xdb, 0x3d, 0x85, 0x46, 0xa7, 0xbe,
  0xe9, 0x11, 0x9c, 0xbe, 0xa0, 0xd6, 0x6f, 0x3d, 0x86, 0x5d, 0x9f, 0xbf,
  0x44, 0x47, 0x0d, 0xbf, 0x1d, 0xbb, 0x82, 0x3d, 0x51, 0xa3, 0x29, 0xbc,
  0xa7, 0xa8, 0x8f, 0xbd, 0x47, 0x7b, 0xa5, 0x3e, 0x87, 0x93, 0x23, 0x3e,
  0x3e, 0x32, 0xcd, 0x3e, 0x6d, 0x9d, 0x03, 0x3c, 0x9b, 0xa5, 0x1f, 0x3e,
  0x53, 0xad, 0x1c, 0xbe, 0x01, 0x64, 0x2e, 0xbd, 0xca, 0x83, 0x1e, 0x3f,
  0x51, 0x5e, 0x3c, 0x3f, 0x60, 0xd3, 0xab, 0xbe, 0x29, 0x17, 0x8d, 0x3e,
  0xe5, 0x49, 0xfa, 0xbd, 0xf8, 0x8d, 0x40, 0xbb, 0x84, 0x2d, 0x30, 0x3e,
  0xf5, 0xe4, 0x0f, 0xbe, 0xc5, 0x20, 0xc8, 0xbb, 0xcd, 0x34, 0x8f, 0xbd,
  0xe7, 0x3e, 0x43, 0x3e, 0x30, 0x90, 0xe8, 0x3e, 0x87, 0xdc, 0xa9, 0xbc,
  0xae, 0x7b, 0x86, 0x39, 0x6c, 0xaa, 0x49, 0x3e, 0xb2, 0x9c, 0x9e, 0x3e,
  0xf4, 0x36, 0xd6, 0xbd, 0x21, 0x8d, 0x6a, 0x3e, 0xe1, 0x26, 0xb8, 0x3e,
  0x93, 0xe2, 0x10, 0xbd, 0xef, 0x35, 0xbc, 0x3f, 0xa6, 0x81, 0x2b, 0x3f,
  0x62, 0x6b, 0x9b, 0xbe, 0xd2, 0xda, 0xc2, 0xbb, 0xe9, 0xf8, 0xcb, 0xbd,
  0x45, 0x90, 0x0e, 0x3e, 0x51, 0x43, 0x02, 0xbd, 0x52, 0xdc, 0x3b, 0xbf,
  0xd6, 0xa2, 0x95, 0xba, 0xf6, 0xa0, 0xec, 0xbd, 0xf5, 0x43, 0x84, 0xbe,
  0x1f, 0x4b, 0x17, 0xbe, 0x37, 0x6d, 0xf4, 0xbe, 0xbe, 0x3f, 0x00, 0x3e,
  0x7d, 0x53, 0x7d, 0xbe, 0x6a, 0x95, 0x6d, 0xbd, 0x32, 0xae, 0xf8, 0xbd,
  0x05, 0x02, 0x98, 0x3c, 0x25, 0xaf, 0xce, 0x3d, 0xd2, 0xb3, 0x01, 0xbe,
  0x0c, 0xdb, 0xd6, 0xbd, 0xd4, 0x6b, 0x95, 0xbd, 0x4a, 0xf1, 0x56, 0xbc,
  0xc2, 0xdd, 0x27, 0x3e, 0x8b, 0x53, 0x08, 0x3d, 0xe1, 0x3b, 0xa7, 0xbc,
  0x61, 0x86, 0xe1, 0xbd, 0xe3, 0x01, 0x0d, 0xbd, 0x34, 0x52, 0xa6, 0xbd,
  0x54, 0xba, 0xe8, 0x3d, 0xdb, 0x80, 0xbd, 0x3d, 0x1e, 0xef, 0x23, 0x3e,
  0x9a, 0x8b, 0x2c, 0xbe, 0x5e, 0xd0, 0x3c, 0xbf, 0xc2, 0x78, 0x30, 0xbe,
  0x51, 0x4c, 0xf8, 0xbb, 0x7a, 0xec, 0x26, 0x3e, 0xd9, 0x0e, 0x0c, 0x3f,
  0x7e, 0x09, 0x47, 0xbd, 0x4f, 0xca, 0x70, 0x3e, 0xfa, 0x51, 0x68, 0xbb,
  0x86, 0x90, 0x52, 0xbd, 0xa3, 0x99, 0xf6, 0x3e, 0xf9, 0x4e, 0xd0, 0xbd,
  0xbe, 0x47, 0xeb, 0xbe, 0x7d, 0x85, 0x52, 0xbf, 0xf3, 0xa7, 0x90, 0x3e,
  0xed, 0xc8, 0x01, 0xbf, 0xb0, 0xd6, 0x0e, 0xbc, 0x32, 0x6a, 0xbb, 0xbc,
  0x3a, 0xdc, 0x04, 0xbf, 0x28, 0x7b, 0x83, 0xbb, 0xa2, 0xc3, 0x89, 0x3d,
  0x79, 0xce, 0x07, 0xbd, 0xce, 0xf6, 0x56, 0xbd, 0x3c, 0xb1, 0x28, 0xbe,
  0x54, 0x90, 0x1e, 0x3d, 0x9a, 0xf3, 0x82, 0xbc, 0xe1, 0x51, 0x4d, 0xbe,
  0x92, 0xb4, 0xa0, 0xbe, 0x59, 0x70, 0x04, 0x3e, 0xcc, 0x0f, 0x48, 0xbe,
  0xcd, 0xd8, 0x88, 0xbe, 0xa2, 0xc5, 0x31, 0xbe, 0x35, 0x4a, 0xc6, 0xbf,
  0x3a, 0xb1, 0xc0, 0xbe, 0x63, 0xc5, 0x86, 0x3e, 0xd4, 0x6a, 0x84, 0x3c,
  0xc8, 0x15, 0xfc, 0x3d, 0xcc, 0xbb, 0x2c, 0xbf, 0x93, 0x82, 0xce, 0xbd,
  0x3c, 0xd7, 0x84, 0xbe, 0xde, 0xa4, 0xf5, 0xba, 0x04, 0xaa, 0xc3, 0x3d,
  0xc7, 0x84, 0xc4, 0x3e, 0x94, 0x3c, 0x1d, 0x3e, 0xea, 0xac, 0x7c, 0x3e,
  0xd9, 0x1e, 0xd4, 0xbe, 0xd6, 0x13, 0x89, 0x3e, 0xbe, 0xc1, 0x3c, 0x3e,
  0xad, 0x9b, 0xdb, 0x3d, 0x26, 0x49, 0x5b, 0x3d, 0x89, 0xbe, 0x9d, 0x3e,
  0x40, 0xd2, 0x8f, 0x3d, 0x0d, 0xaa, 0x54, 0x3d, 0x06, 0x93, 0x23, 0x3d,
  0x14, 0x1d, 0x19, 0x3e, 0xab, 0x04, 0x44, 0xbe, 0xde, 0xd1, 0xdd, 0xbc,
  0xa7, 0x0c, 0x86, 0x3c, 0xc0, 0xf6, 0xfe, 0x3d, 0xf5, 0x58, 0x79, 0xbe,
  0x5c, 0xfa, 0x12, 0x3e, 0x71, 0x64, 0x80, 0xbe, 0xcf, 0x9c, 0x22, 0xbe,
  0xfa, 0xb7, 0x9c, 0x3e, 0xa8, 0xa9, 0x29, 0x3f, 0x87, 0x80, 0xbc, 0x3e,
  0x9e, 0x1c, 0x88, 0xbe, 0xd3, 0x07, 0x18, 0xbc, 0x39, 0x14, 0x4c, 0x3e,
  0x94, 0x01, 0x9a, 0x3e, 0xb0, 0xb2, 0xe2, 0xbc, 0xb0, 0xe4, 0x17, 0x3f,
  0xb9, 0x4b, 0xbe, 0xbb, 0x04, 0x7e, 0x1f, 0xbd, 0xa3, 0xbd, 0x8b, 0x3e,
  0x45, 0xdc, 0x26, 0xbe, 0x46, 0x3e, 0xfa, 0xbe, 0x99, 0xe9, 0x30, 0xbf,
  0xbd, 0x32, 0xb0, 0x3e, 0xa1, 0xf9, 0xc2, 0xbe, 0x79, 0x72, 0x4b, 0xbe,
  0x0d, 0x50, 0x04, 0xbd, 0xc0, 0xe1, 0xea, 0xbd, 0x07, 0x32, 0x38, 0x3d,
  0x37, 0x26, 0x99, 0xbd, 0xd6, 0x79, 0xfe, 0xbd, 0x4c, 0x6a, 0xbe, 0xbd,
  0xdd, 0xfd, 0xe8, 0xbd, 0x81, 0xae, 0x53, 0x3d, 0x34, 0xeb, 0x2e, 0x3c,
  0x9f, 0x15, 0xf8, 0xbd, 0x9f, 0xb1, 0x08, 0x3e, 0xfc, 0xea, 0x24, 0x3e,
  0x2a, 0x85, 0x5c, 0x3e, 0x10, 0x56, 0xa5, 0x3e, 0x7a, 0xe2, 0x60, 0xbe,
  0x37, 0xa6, 0x8f, 0xbf, 0xa3, 0x32, 0x16, 0xbe, 0xe8, 0x13, 0x1d, 0x3e,
  0x7f, 0xae, 0x68, 0x3c, 0xb0, 0xa8, 0x18, 0x3e, 0x4c, 0x0f, 0xae, 0xbe,
  0x96, 0xb6, 0xa7, 0xbc, 0x39, 0x9f, 0xca, 0xbe, 0x52, 0x49, 0xa7, 0xbb,
  0x4d, 0xe5, 0x51, 0x3c, 0xd9, 0x66, 0x0e, 0x3f, 0x1e, 0xe3, 0x7a, 0x3e,
  0x25, 0x13, 0x79, 0xbe, 0xd4, 0xbb, 0x5a, 0xbf, 0x97, 0xab, 0xe9, 0x3e,
  0xb4, 0x55, 0x26, 0xbe, 0x45, 0xb5, 0x88, 0x3e, 0x14, 0x8e, 0x88, 0x3d,
  0xd8, 0xbd, 0xbb, 0x3e, 0xef, 0x3c, 0xa7, 0x3d, 0xb0, 0xf6, 0xfb, 0x3c,
  0x1f, 0xcc, 0xaf, 0x3d, 0x52, 0x16, 0x8a, 0xbc, 0x6b, 0x17, 0x64, 0xbe,
  0x60, 0x9f, 0x5b, 0xbc, 0x30, 0x2e, 0xb1, 0x3c, 0x58, 0x6b, 0x1a, 0x3d,
  0xae, 0x9c, 0xb5, 0xbe, 0x14, 0xf6, 0x03, 0x3e, 0x39, 0x08, 0x7d, 0xbe,
  0xb3, 0x30, 0xc9, 0xbe, 0xcc, 0x15, 0xa2, 0x3e, 0x77, 0xfd, 0x4f, 0xbe,
  0x1d, 0x09, 0xe0, 0x3d, 0x63, 0x1a, 0xbc, 0x3d, 0x12, 0xfe, 0x90, 0x3c,
  0x57, 0xf6, 0x82, 0x3d, 0xca, 0x46, 0x9d, 0xbe, 0x7f, 0x01, 0x48, 0xbc,
  0xd3, 0x26, 0x26, 0xbf, 0x3c, 0x94, 0x8a, 0x3b, 0xf1, 0x65, 0x0b, 0x3d,
  0x81, 0xeb, 0xfb, 0x3e, 0x45, 0xc7, 0xeb, 0x3d, 0xef, 0x6e, 0xb3, 0x3e,
  0x18, 0xe2, 0x5f, 0xbf, 0x87, 0x16, 0xcf, 0x3e, 0xbc, 0x47, 0x89, 0x3e,
  0xfa, 0xe4, 0x52, 0x3e, 0x48, 0x24, 0x95, 0x3d, 0xd8, 0xd8, 0x21, 0x3f,
  0xbe, 0xb5, 0xf6, 0x3d, 0xf7, 0x89, 0x76, 0xbd, 0x67, 0x13, 0x8a, 0x3d,
  0xb0, 0xa5, 0xfd, 0x3c, 0x32, 0x71, 0x62, 0xbe, 0xe9, 0x6f, 0x2c, 0xbd,
  0x80, 0xdd, 0x1b, 0xbb, 0x29, 0x1a, 0xee, 0x3d, 0x0e, 0x82, 0x3e, 0xbe,
  0x48, 0x78, 0x4c, 0x3e, 0x5c, 0xe7, 0x11, 0xbe, 0x34, 0x33, 0x85, 0xbe,
  0xb7, 0xc8, 0x98, 0x3e, 0x5c, 0xf7, 0xee, 0x3d, 0xae, 0xad, 0xc2, 0x3e,
  0x0d, 0x57, 0x22, 0xbe, 0xa6, 0x66, 0x07, 0xbc, 0x7e, 0xf7, 0x31, 0x3e,
  0x1e, 0x48, 0x87, 0x3e, 0x99, 0xff, 0xec, 0xbd, 0x01, 0xe7, 0x4f, 0x3e,
  0x65, 0xbb, 0xdd, 0xbb, 0x30, 0xdd, 0x36, 0xbd, 0x57, 0x00, 0x01, 0x3f,
  0x8d, 0x43, 0x07, 0xbe, 0x18, 0x67, 0xec, 0xbe, 0xbf, 0xaf, 0x43, 0xbf,
  0x55, 0x27, 0x74, 0x3e, 0xbb, 0x84, 0x98, 0xbe, 0x39, 0xbb, 0x25, 0xbe,
  0xcf, 0xd1, 0x25, 0xbd, 0xb5, 0x74, 0x84, 0xbe, 0x1a, 0x11, 0xf1, 0x3d,
  0x0b, 0x89, 0x89, 0x3d, 0x39, 0xb1, 0xcd, 0x3d, 0x0e, 0x83, 0xa5, 0xbd,
  0x30, 0x5a, 0xcd, 0xbe, 0x0f, 0xff, 0x56, 0x3d, 0xf8, 0x3b, 0x01, 0x3c,
  0x4c, 0x54, 0x5d, 0xbe, 0xb1, 0x7e, 0x7b, 0x3e, 0x07, 0xeb, 0x7f, 0x3e,
  0xe3, 0x2b, 0x17, 0xbe, 0xe9, 0xd3, 0xd8, 0x3d, 0xda, 0xec, 0x8e, 0xbd,
  0x9b, 0x64, 0x3d, 0xbf, 0x9b, 0x67, 0x9f, 0xbe, 0x00, 0x5a, 0x09, 0xbe,
  0x90, 0xad, 0x57, 0x3c, 0xbf, 0x2d, 0x21, 0x3e, 0xd3, 0x8e, 0xda, 0xbe,
  0xff, 0x17, 0xa3, 0xbd, 0x9d, 0x4f, 0xc9, 0xbe, 0x1c, 0xac, 0x95, 0xbb,
  0x7e, 0xec, 0xa8, 0xbd, 0xc1, 0x68, 0x8f, 0x3e, 0xc0, 0x89, 0x44, 0x3e,
  0xab, 0xca, 0x2b, 0xbe, 0x97, 0xbb, 0xf3, 0xbe, 0x0c, 0x20, 0xa9, 0x3e,
  0xc6, 0x73, 0x96, 0xbe, 0x84, 0xca, 0x76, 0x3e, 0xff, 0xad, 0x88, 0x3d,
  0x17, 0xa7, 0x15, 0x3f, 0x30, 0x5b, 0x20, 0x3e, 0xca, 0x38, 0x65, 0xbd,
  0xee, 0x1c, 0x43, 0x3d, 0xbe, 0x07, 0x5d, 0xbd, 0x72, 0xe8, 0xff, 0xbd,
  0x11, 0xaf, 0xf6, 0x3c, 0x11, 0xd8, 0x0f, 0xbc, 0xf8, 0x03, 0x28, 0xbd,
  0x67, 0x61, 0x2e, 0xbe, 0x4c, 0x5d, 0x02, 0x3e, 0x3f, 0x9b, 0x11, 0xbe,
  0x5c, 0x31, 0xb4, 0xbe, 0x91, 0x94, 0x91, 0x3e, 0x9f, 0x87, 0x88, 0xbf,
  0x48, 0x56, 0x5e, 0xbd, 0x0f, 0x99, 0x23, 0xbe, 0x3d, 0x6c, 0x30, 0x3c,
  0x38, 0x27, 0x45, 0x3e, 0x26, 0xe2, 0x01, 0xbf, 0x98, 0xb7, 0xa5, 0xbd,
  0x21, 0x7d, 0x38, 0x3c, 0xf6, 0xd1, 0xf7, 0xbb, 0x27, 0x2c, 0xeb, 0xbc,
  0xbe, 0x1d, 0x05, 0x3f, 0x70, 0xa5, 0x23, 0x3e, 0xaf, 0x3b, 0x9f, 0xbe,
  0xff, 0xd9, 0x0d, 0xbf, 0x7c, 0x3c, 0xef, 0x3e, 0x97, 0xce, 0x36, 0xbe,
  0xe6, 0xde, 0x52, 0x3e, 0x29, 0x9d, 0x4c, 0x3d, 0xed, 0x32, 0x91, 0xbe,
  0x3b, 0x34, 0x22, 0x3e, 0xea, 0x0d, 0x4b, 0xbc, 0x20, 0x14, 0xf3, 0x3d,
  0x9b, 0x6a, 0x95, 0x3d, 0xa6, 0x72, 0x34, 0xbe, 0xc9, 0xee, 0x35, 0x3c,
  0x3c, 0x94, 0x39, 0x3a, 0x79, 0xba, 0x4d, 0xbd, 0x79, 0x43, 0xaa, 0xbe,
  0xef, 0x26, 0x7e, 0x3e, 0xd0, 0x69, 0x44, 0xbe, 0x93, 0xa5, 0x37, 0xbe,
  0x83, 0x07, 0xa9, 0x3e, 0x9c, 0xc8, 0x3b, 0xbf, 0x40, 0x56, 0xd6, 0x3b,
  0x44, 0x98, 0x67, 0x3e, 0x2d, 0x33, 0xf2, 0x3a, 0x15, 0x34, 0xb1, 0xbc,
  0x5f, 0xf2, 0x06, 0x3f, 0x3a, 0x33, 0xd7, 0x3d, 0x96, 0x51, 0xeb, 0x3e,
  0x50, 0xea, 0x57, 0x3c, 0xa5, 0x94, 0xcd, 0x3d, 0x2e, 0x1d, 0x24, 0xbd,
  0xe5, 0xe3, 0x62, 0xbd, 0xef, 0x5d, 0xf3, 0x3e, 0xa2, 0x77, 0x76, 0x3f,
  0x6b, 0x6b, 0x47, 0xbe, 0x20, 0xb9, 0x85, 0x3e, 0x0f, 0x62, 0x9a, 0xbd,
  0x2e, 0x21, 0x5f, 0x3b, 0x6c, 0x9d, 0x6e, 0xbd, 0xa4, 0xc4, 0xc3, 0xbd,
  0x50, 0x77, 0xf0, 0x3d, 0xee, 0xed, 0x4d, 0xbd, 0xaf, 0xcb, 0x30, 0x3e,
  0xc3, 0x16, 0xa1, 0x3e, 0xbf, 0x5d, 0xc5, 0xbc, 0x0e, 0xbe, 0x1b, 0x3c,
  0xae, 0x22, 0x62, 0x3e, 0xe3, 0x42, 0xa0, 0x3e, 0xba, 0xf1, 0x04, 0xbd,
  0x4a, 0x0c, 0xab, 0x3e, 0x60, 0xaa, 0x9a, 0x3d, 0xcb, 0x07, 0xcf, 0xbd,
  0x62, 0x89, 0xbf, 0x3f, 0xad, 0x58, 0x2f, 0x3f, 0xf3, 0x1d, 0x52, 0xbe,
  0xeb, 0xad, 0x9b, 0xbc, 0xc2, 0xb6, 0x35, 0xbe, 0x5f, 0x1a, 0x18, 0x3f,
  0xdc, 0xbe, 0x80, 0xbc, 0xcb, 0x27, 0x43, 0x3e, 0x90, 0x4c, 0x4b, 0xbb,
  0x13, 0xff, 0x91, 0x3c, 0x6b, 0x78, 0x0d, 0xbf, 0xed, 0xac, 0xfd, 0xbd,
  0x0a, 0xa7, 0xd9, 0xbd, 0xd1, 0x28, 0x89, 0xbe, 0x96, 0x2a, 0xab, 0xbe,
  0xf1, 0x8f, 0xb6, 0x3e, 0x2f, 0xbf, 0x57, 0xbe, 0x0b, 0x78, 0x69, 0xbd,
  0x76, 0x49, 0x17, 0xbe, 0x44, 0x13, 0xca, 0xbd, 0x4c, 0x03, 0x54, 0x3a,
  0xe8, 0xde, 0x10, 0xbd, 0xf0, 0xe2, 0x98, 0xbd, 0xa2, 0x7e, 0x0b, 0x3e,
  0x4f, 0xbb, 0x58, 0xbc, 0xff, 0xf5, 0xd9, 0x3a, 0x75, 0xc4, 0xcd, 0x3d,
  0x24, 0x03, 0x3b, 0xbc, 0xf7, 0x3a, 0x8c, 0xbe, 0x5b, 0x68, 0xbc, 0xbd,
  0xc3, 0x4c, 0x89, 0x3e, 0xea, 0x09, 0x8b, 0xbe, 0xe7, 0xee, 0x44, 0x3e,
  0x25, 0x83, 0x2e, 0xbe, 0x77, 0xfb, 0x6c, 0x3e, 0xa3, 0x36, 0xdf, 0xbb,
  0x5c, 0xc6, 0x09, 0xbe, 0xb6, 0x7a, 0xfc, 0x3e, 0x62, 0xcf, 0xe7, 0x3d,
  0x3d, 0x32, 0xca, 0x3e, 0x43, 0x95, 0x99, 0x3b, 0xac, 0x06, 0x95, 0x3d,
  0x36, 0xc6, 0x6f, 0xbe, 0xf3, 0x40, 0x69, 0xbd, 0x2a, 0x8d, 0x09, 0x3f,
  0x0e, 0x5e, 0x63, 0x3f, 0xf2, 0x5a, 0x5d, 0xbe, 0x60, 0x89, 0xbe, 0x3e,
  0xdf, 0x45, 0x8d, 0xbd, 0x0c, 0x01, 0x1d, 0xbd, 0xa5, 0x9a, 0xde, 0x3d,
  0x02, 0x69, 0xc7, 0xbd, 0x74, 0xa3, 0x82, 0x3d, 0xca, 0x06, 0xab, 0xbd,
  0xcc, 0x65, 0x2f, 0x3e, 0xa9, 0xb2, 0x3a, 0x3e, 0xd9, 0x28, 0xeb, 0xbc,
  0x34, 0x7c, 0xd8, 0x3b, 0x1b, 0x8d, 0x63, 0x3e, 0xc2, 0xdd, 0x76, 0x3e,
  0xc4, 0xf6, 0x52, 0xbe, 0x12, 0x99, 0x6f, 0x3e, 0x16, 0xaa, 0x07, 0x3e,
  0xb3, 0xbe, 0x0b, 0xbe, 0x55, 0x41, 0x80, 0x3f, 0x79, 0x82, 0x03, 0x3f,
  0xfe, 0x73, 0xb5, 0xbd, 0x74, 0x48, 0x38, 0x3c, 0x75, 0x35, 0x8a, 0x3d,
  0x73, 0xfb, 0x98, 0xbe, 0xa1, 0x72, 0xa8, 0xbd, 0xc1, 0x1f, 0x0c, 0xbf,
  0x3b, 0x70, 0xc2, 0xbb, 0x70, 0xe0, 0xab, 0xbd, 0x9f, 0x9b, 0xbc, 0x3e,
  0xad, 0x55, 0x15, 0x3e, 0x1e, 0x9d, 0x21, 0xbf, 0xad, 0x5b, 0x43, 0xbf,
  0x39, 0x39, 0xf0, 0x3d, 0xcf, 0x88, 0xf4, 0xbe, 0x2c, 0x89, 0xf3, 0x3c,
  0x90, 0xf7, 0x64, 0x3d, 0x15, 0x07, 0x96, 0x3c, 0x5a, 0xb8, 0x1a, 0x3e,
  0xa2, 0xed, 0x99, 0xbd, 0xec, 0xf2, 0x09, 0x3e, 0x92, 0xa7, 0xf5, 0xbd,
  0xd9, 0x98, 0xac, 0xbe, 0x11, 0xb1, 0x16, 0x3d, 0xc8, 0x2b, 0x5c, 0xbc,
  0x2d, 0xae, 0x1f, 0xbe, 0x6d, 0x62, 0xe1, 0xbd, 0xdc, 0xc8, 0x70, 0x3e,
  0x9f, 0xe2, 0x7e, 0xbe, 0x40, 0x2b, 0xb2, 0xbe, 0xdc, 0x9f, 0xed, 0x3d,
  0x60, 0x5e, 0xbe, 0xbf, 0x7b, 0xe3, 0x06, 0xbf, 0xbe, 0x66, 0x1e, 0xbe,
  0xfb, 0x55, 0xd3, 0x3b, 0x6b, 0xa0, 0x33, 0xbe, 0x2a, 0xde, 0x2f, 0x3f,
  0x60, 0xc7, 0xdd, 0x3d, 0x23, 0xc1, 0xce, 0xbe, 0x2a, 0x7b, 0xf3, 0x3b,
  0x06, 0x2c, 0xbb, 0x3d, 0x83, 0x21, 0x6a, 0xbe, 0xf8, 0x8f, 0x06, 0x3e,
  0x1c, 0x4a, 0x1d, 0x3f, 0xd5, 0x4c, 0x35, 0x3f, 0x04, 0x3f, 0x40, 0xbe,
  0x08, 0xef, 0x8c, 0x3e, 0x52, 0x54, 0xa9, 0x3d, 0xf8, 0x75, 0x1b, 0x3d,
  0x77, 0x74, 0x1f, 0x3e, 0x9b, 0x44, 0xc7, 0xbd, 0x97, 0x2d, 0xd0, 0xbd,
  0x59, 0x9a, 0x85, 0xbd, 0xc0, 0x48, 0x8d, 0x3d, 0xc1, 0x9a, 0xbb, 0x3e,
  0xdf, 0xf2, 0x8f, 0x3c, 0xad, 0x72, 0x13, 0xbc, 0x9c, 0x97, 0xf9, 0x3d,
  0xce, 0x8f, 0x83, 0x3e, 0x41, 0xcd, 0x52, 0xbe, 0xc0, 0xd2, 0x86, 0x3e,
  0x41, 0x4e, 0x6c, 0x3e, 0x25, 0xd6, 0x1f, 0x3e, 0x5d, 0xf6, 0xd6, 0x3f,
  0x12, 0x31, 0xab, 0x3e, 0xa9, 0x5d, 0x37, 0xbe, 0x52, 0x74, 0x0c, 0xbc,
  0x04, 0x3b, 0x3f, 0xbc, 0xcc, 0xca, 0x2b, 0x3e, 0xe0, 0x02, 0x07, 0x3e,
  0xef, 0x9b, 0x73, 0x3e, 0x94, 0x81, 0x16, 0x3c, 0x28, 0x31, 0x83, 0xbc,
  0xe2, 0xb0, 0xc4, 0x3d, 0x0e, 0x45, 0x23, 0xbe, 0x61, 0x4d, 0x1c, 0x3e,
  0x5f, 0xb9, 0x86, 0x3f, 0x40, 0x02, 0x86, 0xbe, 0xd0, 0x27, 0xa3, 0xbe,
  0x9f, 0x9e, 0xe4, 0xbd, 0xf6, 0xc2, 0x57, 0x3d, 0x35, 0xf3, 0x94, 0x3e,
  0x1a, 0xf2, 0x55, 0xbb, 0x3f, 0x14, 0xa6, 0x3c, 0x3a, 0x9b, 0xa4, 0xbd,
  0x94, 0xd5, 0x1e, 0xbb, 0x41, 0xd9, 0xc5, 0x3e, 0x15, 0x49, 0x30, 0x3d,
  0x6d, 0x77, 0x48, 0xbc, 0x3d, 0x71, 0x54, 0xbe, 0x4b, 0x4f, 0xba, 0x3e,
  0x3d, 0x27, 0xf3, 0x3b, 0xeb, 0x0c, 0x86, 0x3e, 0x08, 0x67, 0x55, 0x3e,
  0xcd, 0xac, 0xca, 0xbd, 0x4e, 0xe4, 0xf9, 0xbe, 0xed, 0x36, 0x61, 0xbe,
  0x75, 0x7b, 0x1e, 0x3e, 0xec, 0x4a, 0x49, 0xbc, 0xd6, 0xdd, 0x4c, 0xbe,
  0xa9, 0x87, 0x49, 0x3f, 0xca, 0x8a, 0x05, 0xbb, 0xda, 0x75, 0x5b, 0x3e,
  0x52, 0xca, 0x21, 0xbc, 0x3b, 0xf4, 0xc9, 0x3a, 0xf0, 0x3a, 0xb6, 0xbe,
  0xa6, 0x05, 0x33, 0xbe, 0x5f, 0x6c, 0x2c, 0xbd, 0xa0, 0xa2, 0x38, 0x3f,
  0x1a, 0x5c, 0xfc, 0xbe, 0x0d, 0x40, 0x5c, 0x3e, 0x97, 0x1a, 0x4b, 0xbe,
  0x41, 0xf7, 0x09, 0x3c, 0xc4, 0xcc, 0xfb, 0x3d, 0xfb, 0x94, 0x29, 0xbe,
  0x4d, 0x51, 0x16, 0x3d, 0x21, 0x04, 0x05, 0xbe, 0x1a, 0x03, 0x0c, 0xbe,
  0x20, 0x4f, 0x8f, 0x3e, 0xb3, 0x18, 0x22, 0x3c, 0x4b, 0xa9, 0xc3, 0x3a,
  0xcd, 0xae, 0xc0, 0x3d, 0x71, 0xf2, 0xb5, 0x3e, 0x09, 0x0a, 0x67, 0xbe,
  0x20, 0x79, 0x98, 0x3e, 0x61, 0x91, 0x97, 0x3e, 0x0f, 0xd6, 0xad, 0xbe,
  0xd4, 0x71, 0x8b, 0x3f, 0x7e, 0x32, 0x34, 0x3e, 0x7f, 0x0d, 0x20, 0xbe,
  0x22, 0x9b, 0x70, 0xbc, 0x99, 0xe9, 0x34, 0x3e, 0xc3, 0xa0, 0xee, 0xbb,
  0x9c, 0x96, 0xb6, 0xbd, 0x7f, 0x90, 0x8a, 0x3e, 0xf4, 0x53, 0x49, 0xbb,
  0xb1, 0x4d, 0x84, 0xbd, 0x29, 0x8d, 0x32, 0x3f, 0x6f, 0xb2, 0x09, 0xbe,
  0xfb, 0xd8, 0xda, 0xbe, 0x0c, 0x2c, 0x2b, 0xbf, 0x4f, 0x69, 0x74, 0x3e,
  0x98, 0x57, 0x22, 0xbe, 0x06, 0x09, 0x53, 0xbd, 0x0e, 0x4b, 0x99, 0xbc,
  0x77, 0xfd, 0xb0, 0xbe, 0x89, 0x42, 0x1f, 0x3e, 0xb3, 0x81, 0x92, 0x3d,
  0x51, 0xce, 0xf7, 0x3d, 0x19, 0x5e, 0xfd, 0xbc, 0x6b, 0x11, 0x59, 0xbe,
  0xca, 0x48, 0xf6, 0xbb, 0x48, 0xf1, 0xa3, 0x3c, 0xc6, 0xd1, 0x50, 0xbe,
  0xf1, 0x47, 0x0e, 0x3e, 0x60, 0x61, 0x62, 0x3e, 0xbd, 0x68, 0x91, 0x3d,
  0xc9, 0xa8, 0x18, 0x3e, 0xb3, 0x55, 0x67, 0xbe, 0xe7, 0xf5, 0x3f, 0xbf,
  0x00, 0x7e, 0x50, 0xbe, 0x1e, 0xe9, 0xe6, 0xba, 0x4b, 0xab, 0x1d, 0x3c,
  0xe5, 0x12, 0x23, 0x3e, 0x65, 0x4e, 0x44, 0xbf, 0xbd, 0x1d, 0x3a, 0x3d,
  0x5e, 0xfd, 0xe9, 0xbd, 0xd4, 0xd5, 0xfe, 0xba, 0xd3, 0x0f, 0xf8, 0x3d,
  0xa4, 0x56, 0xa8, 0x3e, 0x38, 0x15, 0x2f, 0x3e, 0xf6, 0xa7, 0x28, 0x3e,
  0x82, 0x8c, 0x97, 0xbe, 0xc0, 0x1a, 0xc1, 0x3e, 0xfd, 0xb0, 0x5a, 0xbe,
  0x57, 0x3f, 0x16, 0x3e, 0xd7, 0x9f, 0xba, 0xbc, 0x23, 0xa3, 0x2e, 0xbd,
  0x8f, 0x77, 0xc3, 0x3d, 0xef, 0x63, 0x85, 0xbc, 0xf3, 0xee, 0x14, 0x3d,
  0xef, 0xbc, 0x23, 0x3d, 0xf5, 0xe1, 0x80, 0xbe, 0x63, 0xe9, 0xde, 0xbb,
  0xc9, 0xbc, 0xac, 0x3c, 0xf4, 0xd9, 0xd5, 0xbc, 0x14, 0xc4, 0xe5, 0xbd,
  0xe1, 0x86, 0x1b, 0x3e, 0xc5, 0x9f, 0x22, 0xbe, 0x6f, 0x83, 0xa3, 0xbe,
  0xa0, 0x9a, 0x1b, 0x3e, 0xe9, 0x67, 0xb0, 0xbf, 0x06, 0xe2, 0x15, 0x3f,
  0xc4, 0x4a, 0x43, 0x3e, 0x1f, 0x65, 0x57, 0xbc, 0x44, 0x86, 0xe9, 0xbd,
  0xb3, 0x1b, 0x55, 0x3f, 0x63, 0x92, 0xf5, 0x3d, 0x35, 0x5c, 0xe0, 0x3e,
  0xe2, 0xe8, 0xc2, 0x3b, 0x29, 0x0d, 0x99, 0x3d, 0x21, 0xfc, 0x9d, 0xbe,
  0x14, 0x03, 0x0d, 0xbe, 0xeb, 0xc2, 0x2b, 0x3f, 0xba, 0x29, 0xed, 0x3e,
  0xfd, 0xaa, 0x6a, 0xbe, 0xd1, 0xc2, 0xbe, 0x3e, 0xa1, 0x52, 0x72, 0xbd,
  0x57, 0x12, 0x29, 0xbd, 0x52, 0x52, 0xd1, 0xbe, 0x56, 0x8f, 0x88, 0xbd,
  0xdb, 0x55, 0xf5, 0x3d, 0xe8, 0x2a, 0x49, 0xbd, 0xe4, 0x9b, 0xc2, 0x3d,
  0xf8, 0xa1, 0x8c, 0x3e, 0xb0, 0x41, 0x78, 0xbc, 0xbf, 0x1e, 0xf2, 0x3c,
  0x72, 0x64, 0xf9, 0x3d, 0x27, 0x92, 0x31, 0x3e, 0x3c, 0x2f, 0x8c, 0xbd,
  0xb7, 0xe5, 0xb1, 0x3e, 0x4d, 0x12, 0x46, 0x3e, 0x00, 0x42, 0x05, 0xbe,
  0x34, 0xcb, 0xbf, 0x3f, 0x9a, 0xf3, 0x0b, 0x3f, 0x66, 0xef, 0xff, 0xff,
  0x04, 0x00, 0x00, 0x00, 0x80, 0x00, 0x00, 0x00, 0x7f, 0xf0, 0x63, 0x41,
  0xad, 0xd3, 0x0b, 0xc1, 0xec, 0x1a, 0x67, 0x40, 0xbc, 0xc2, 0x9c, 0xc1,
  0xcb, 0x36, 0xbd, 0x40, 0xac, 0x8e, 0x5a, 0x40, 0xea, 0xf8, 0x08, 0x41,
  0xdb, 0xa0, 0x4c, 0xc1, 0x78, 0x2b, 0x80, 0xc1, 0x6f, 0xfe, 0x26, 0x41,
  0xc8, 0x05, 0x13, 0x41, 0xa2, 0x88, 0x58, 0x41, 0xe6, 0x97, 0x96, 0xc1,
  0x2e, 0x68, 0x37, 0x41, 0xab, 0x7f, 0xa4, 0x40, 0xa3, 0x69, 0x12, 0xc0,
  0xaa, 0xb6, 0x21, 0xc1, 0xd8, 0x0b, 0x3d, 0x40, 0xd6, 0xe6, 0x13, 0xbf,
  0x0e, 0xb6, 0x78, 0xbf, 0x0d, 0xad, 0x8a, 0x40, 0x63, 0x83, 0xdf, 0x3f,
  0x2b, 0xeb, 0x93, 0xc1, 0x88, 0xb5, 0x06, 0x41, 0xda, 0xd2, 0x40, 0xc1,
  0x22, 0x10, 0x50, 0x41, 0x64, 0x89, 0xe5, 0xc0, 0x5f, 0x89, 0x39, 0xc1,
  0x96, 0x86, 0x9c, 0xc0, 0xf2, 0x6d, 0x92, 0xc0, 0xf1, 0xba, 0x86, 0xc0,
  0xd6, 0xa7, 0x4a, 0xc1, 0xf2, 0xef, 0xff, 0xff, 0x04, 0x00, 0x00, 0x00,
  0x00, 0x10, 0x00, 0x00, 0xa7, 0x30, 0x9d, 0x41, 0xff, 0x16, 0x95, 0xc1,
  0xa3, 0x79, 0xa8, 0x41, 0x3d, 0x87, 0x06, 0xbb, 0xbb, 0x8e, 0x80, 0xc1,
  0xd1, 0x8c, 0x72, 0xc1, 0x27, 0xe3, 0xee, 0xc1, 0x6e, 0x04, 0xe2, 0xc1,
  0xb2, 0xa2, 0xe9, 0xc1, 0x2f, 0xc2, 0x74, 0xbe, 0x46, 0x8b, 0x6a, 0xbe,
  0xf1, 0xaa, 0x84, 0xc1, 0x5c, 0x83, 0xd5, 0x41, 0x36, 0x48, 0x07, 0x42,
  0x6c, 0x9e, 0x86, 0xbd, 0x4e, 0x06, 0xdf, 0x41, 0xbd, 0xf4, 0xf9, 0xbd,
  0x07, 0x76, 0xa4, 0x41, 0x1c, 0xbe, 0xdf, 0x3c, 0xe4, 0xdb, 0x0c, 0xc2,
  0x61, 0x93, 0xf9, 0x3d, 0x70, 0x58, 0xa6, 0x41, 0x2d, 0x9b, 0x95, 0x41,
  0xf1, 0x99, 0xea, 0xc1, 0x17, 0xb3, 0xe2, 0xc1, 0x8a, 0x5a, 0x3e, 0x41,
  0x24, 0xe1, 0xd3, 0x41, 0xed, 0xd5, 0x9f, 0x3b, 0x66, 0x40, 0xa0, 0xc1,
  0x47, 0x64, 0xa8, 0x3d, 0x14, 0xe7, 0xa8, 0xbf, 0xd5, 0x94, 0x8d, 0x3e,
  0x23, 0x42, 0x46, 0xc1, 0xb0, 0x3d, 0x8d, 0x40, 0xc4, 0xe6, 0xfb, 0xbe,
  0xfc, 0x3a, 0xec, 0x3e, 0x63, 0x09, 0x17, 0xc1, 0xf7, 0x5d, 0x09, 0xc1,
  0xf1, 0x83, 0x26, 0xbf, 0x0f, 0xb3, 0x54, 0xbc, 0x26, 0xcd, 0x00, 0x41,
  0xfe, 0x2f, 0xf1, 0x3d, 0x6c, 0x0f, 0xb4, 0x3e, 0x8c, 0xc2, 0x2b, 0xc0,
  0x22, 0x2e, 0x0d, 0xc0, 0x60, 0x71, 0xa5, 0xc0, 0x99, 0x05, 0x3c, 0x3e,
  0x39, 0x79, 0x9c, 0x3f, 0x07, 0x53, 0x42, 0x3e, 0xaa, 0x78, 0x25, 0xc0,
  0x55, 0x71, 0x52, 0x3f, 0x33, 0x82, 0xd5, 0x40, 0x8f, 0x56, 0x0c, 0x3e,
  0xf3, 0x23, 0xb3, 0x3f, 0x0f, 0xa5, 0x16, 0xc0, 0xf1, 0x59, 0xd7, 0xbf,
  0x4f, 0x3a, 0x0d, 0x40, 0xb5, 0x7a, 0x2a, 0x3f, 0x5b, 0x0a, 0x24, 0x3e,
  0x2d, 0x87, 0xb9, 0xbd, 0xbb, 0x0d, 0xdd, 0xc0, 0x9a, 0x0c, 0x5a, 0x3e,
  0xe7, 0x7a, 0xaa, 0x3f, 0xb5, 0x67, 0x22, 0x3f, 0x66, 0xbf, 0x8f, 0xc0,
  0x77, 0xe6, 0x2f, 0xc1, 0x8d, 0x5f, 0xb2, 0xc0, 0x6e, 0x7f, 0x18, 0x3f,
  0x64, 0x42, 0x00, 0x40, 0xff, 0xc5, 0xd9, 0x40, 0xc3, 0xca, 0xc2, 0x40,
  0x09, 0x50, 0x24, 0xc1, 0x32, 0xe5, 0xd8, 0xc0, 0xb5, 0x58, 0x99, 0xbd,
  0xc9, 0x9d, 0x2c, 0xbd, 0x51, 0xad, 0xbc, 0x40, 0xcd, 0x82, 0xf3, 0xc0,
  0x3e, 0x06, 0x25, 0x41, 0x1c, 0x3c, 0x57, 0x3e, 0x0a, 0x7c, 0xd4, 0xbf,
  0x28, 0xcb, 0x5b, 0x3e, 0xad, 0xb6, 0x0f, 0x40, 0xe4, 0xb3, 0x03, 0x40,
  0xc6, 0xd2, 0x73, 0xc0, 0xa8, 0x7d, 0xcc, 0x3e, 0xa6, 0xea, 0x8e, 0xc0,
  0x34, 0xe6, 0xe0, 0xc0, 0x84, 0x81, 0xcf, 0x40, 0x74, 0x71, 0x37, 0xc1,
  0xc6, 0xb9, 0x69, 0xc0, 0xc9, 0x53, 0x17, 0x41, 0x3f, 0xb2, 0x31, 0x3e,
  0xd3, 0xe2, 0x92, 0xc0, 0x51, 0x37, 0xc0, 0x3e, 0x49, 0xac, 0x8a, 0x3f,
  0xa0, 0x76, 0x49, 0x3f, 0x51, 0xe9, 0x37, 0x40, 0xd7, 0xc8, 0x1c, 0xc1,
  0x2b, 0xc9, 0xbb, 0x40, 0x07, 0x1c, 0x8f, 0xbe, 0xd4, 0x12, 0x76, 0xc0,
  0x43, 0xa7, 0x78, 0xc1, 0x21, 0x8e, 0xde, 0x40, 0x08, 0x43, 0xa7, 0x40,
  0xb0, 0x64, 0x9f, 0x3c, 0x4b, 0x3e, 0x52, 0xbe, 0x59, 0x4f, 0x14, 0xbd,
  0x74, 0xd9, 0x42, 0xc1, 0xb1, 0x10, 0x91, 0xc0, 0x55, 0x0f, 0x58, 0xc0,
  0xfa, 0x02, 0x64, 0xbd, 0x09, 0x5e, 0xc0, 0xbf, 0xdd, 0xc3, 0x9b, 0xbd,
  0x99, 0x53, 0x3f, 0xc0, 0xb5, 0xa8, 0x85, 0xbf, 0xa8, 0xd2, 0x14, 0xc2,
  0x19, 0xf4, 0xaf, 0xbd, 0x0c, 0xb3, 0xcd, 0xbf, 0x0f, 0x1b, 0x95, 0xc0,
  0xb1, 0x45, 0x03, 0x41, 0x10, 0x46, 0xb4, 0x40, 0xd4, 0xc9, 0xe6, 0x40,
  0x06, 0xdf, 0x6f, 0x40, 0xaa, 0x02, 0x9e, 0xbe, 0x3e, 0xb4, 0xbb, 0xbe,
  0x78, 0x70, 0x80, 0xbe, 0x8b, 0x74, 0xde, 0xbf, 0x4f, 0xa4, 0x89, 0x3e,
  0x1c, 0x8a, 0x16, 0xc0, 0x24, 0x81, 0x38, 0x40, 0x31, 0xff, 0x5a, 0xc0,
  0x1c, 0xa6, 0xea, 0xbe, 0x6d, 0x11, 0x15, 0xc1, 0x20, 0x05, 0xea, 0xc0,
  0xfb, 0x97, 0x92, 0x40, 0x83, 0x92, 0x7f, 0xc0, 0x33, 0xe8, 0xc3, 0x3f,
  0x75, 0x0b, 0x68, 0xbe, 0x0f, 0x36, 0xbb, 0xbe, 0x5d, 0x37, 0x19, 0xc1,
  0x15, 0x9d, 0x2c, 0x41, 0x6c, 0x63, 0x08, 0x41, 0x22, 0xeb, 0x4b, 0xbe,
  0xb0, 0x94, 0xa5, 0xc0, 0xab, 0x82, 0x0f, 0xbd, 0x24, 0xcb, 0xf6, 0x40,
  0x14, 0x01, 0xd9, 0xbf, 0xc4, 0x5a, 0x94, 0x41, 0x27, 0x80, 0x32, 0xbe,
  0x28, 0xcd, 0xe7, 0xc0, 0xf1, 0x68, 0x19, 0x40, 0x1f, 0x94, 0x04, 0xc1,
  0x92, 0x1e, 0xcb, 0xc0, 0x5a, 0xa8, 0x07, 0xc1, 0x5d, 0x2a, 0x18, 0x41,
  0x98, 0x2c, 0xe8, 0x3d, 0x13, 0x30, 0x3a, 0xc0, 0x69, 0xda, 0x56, 0xbd,
  0x85, 0xde, 0xfe, 0xbe, 0x1f, 0x76, 0x0e, 0xbf, 0x0a, 0x45, 0x9e, 0xbf,
  0xda, 0xa6, 0x5a, 0xc1, 0x52, 0x05, 0x36, 0x41, 0x86, 0x68, 0x99, 0xbe,
  0x81, 0xaf, 0x81, 0x41, 0xd9, 0x7e, 0x1f, 0xc1, 0xa8, 0xd9, 0xad, 0xbd,
  0xb6, 0x6b, 0xff, 0x3f, 0xac, 0x0e, 0x07, 0x40, 0x2b, 0x6c, 0x27, 0xbe,
  0x27, 0x5a, 0x96, 0xbe, 0x9e, 0x9a, 0x9a, 0x40, 0x93, 0x8a, 0x0b, 0x41,
  0xee, 0xaa, 0xf3, 0x40, 0xed, 0xcf, 0x6e, 0xbe, 0xac, 0x99, 0x1d, 0x41,
  0xcb, 0x13, 0x0f, 0xbe, 0xc7, 0x61, 0x88, 0x40, 0xaf, 0xe2, 0xad, 0xbf,
  0x9c, 0x09, 0xc2, 0xc1, 0x61, 0x39, 0x94, 0xbe, 0xfa, 0x98, 0x35, 0x41,
  0xeb, 0x48, 0x06, 0x40, 0x69, 0x6b, 0xb1, 0xc0, 0x89, 0xc5, 0xba, 0xbf,
  0xbd, 0x9d, 0xce, 0xbf, 0x20, 0x96, 0xad, 0xbf, 0x54, 0xcb, 0x79, 0xbe,
  0x77, 0x11, 0xa1, 0xc0, 0x0b, 0xa7, 0x1d, 0xbe, 0x95, 0x0f, 0xbe, 0xbf,
  0x19, 0x1f, 0xfd, 0xbe, 0x27, 0xa2, 0x2e, 0x41, 0x11, 0x32, 0x89, 0xc1,
  0xb3, 0xb9, 0xd1, 0x40, 0x77, 0x70, 0xe0, 0xbe, 0x59, 0xf9, 0xa4, 0xc1,
  0x78, 0xb0, 0xae, 0xc0, 0x93, 0x1e, 0x2e, 0xc1, 0xdd, 0xec, 0xa5, 0xc1,
  0xb3, 0x40, 0xa8, 0xc1, 0x4e, 0xe6, 0xa8, 0xbe, 0x47, 0xd3, 0xc1, 0xbe,
  0x56, 0x61, 0x99, 0xc1, 0x0d, 0x8e, 0x4c, 0x41, 0x86, 0x2f, 0x91, 0x41,
  0x9c, 0x14, 0x43, 0xbe, 0xe3, 0x07, 0xe8, 0x40, 0xbe, 0xd5, 0x91, 0xbd,
  0xcc, 0xe3, 0x71, 0x41, 0xb0, 0x18, 0xc8, 0xbf, 0x3c, 0x06, 0xc0, 0x41,
  0x59, 0xfd, 0xc4, 0xbd, 0xe6, 0x30, 0x17, 0x41, 0x64, 0xce, 0x3e, 0x41,
  0x58, 0xd4, 0xa1, 0xc1, 0x0f, 0x5f, 0xb9, 0xc1, 0x4a, 0xa7, 0x01, 0x41,
  0x4f, 0x62, 0x1c, 0x41, 0xf8, 0x94, 0x85, 0xbd, 0x2d, 0xba, 0x60, 0xc1,
  0x7e, 0xff, 0x06, 0xbe, 0xb6, 0xe3, 0x68, 0xbf, 0xcb, 0xbb, 0x20, 0xbf,
  0x0f, 0x59, 0x3c, 0xc1, 0x90, 0x17, 0x86, 0x41, 0x00, 0x53, 0x87, 0xc0,
  0x3a, 0xc3, 0x02, 0xbf, 0xd3, 0x5c, 0x01, 0xc0, 0x27, 0xb3, 0x41, 0xc0,
  0xd9, 0x50, 0x4f, 0x41, 0xb4, 0xd6, 0x02, 0x41, 0x0a, 0x28, 0x9c, 0x41,
  0x14, 0x46, 0x35, 0xbd, 0x53, 0xca, 0xac, 0xbe, 0xa6, 0x22, 0xbf, 0x40,
  0x1b, 0x1b, 0x1e, 0xc1, 0x94, 0xf6, 0x72, 0xc1, 0x46, 0x86, 0x36, 0xbe,
  0x72, 0xed, 0xad, 0xc1, 0xe6, 0x31, 0x08, 0xbe, 0x56, 0x70, 0x5c, 0xc1,
  0xbf, 0xbc, 0xd7, 0xbf, 0x92, 0xae, 0x54, 0xc1, 0x3c, 0xeb, 0x6d, 0xbe,
  0x0a, 0x46, 0x61, 0xc1, 0xf5, 0x10, 0x80, 0xc0, 0x72, 0x98, 0xa2, 0x41,
  0x82, 0x15, 0x11, 0x41, 0x23, 0x5f, 0x0f, 0xc1, 0x71, 0x42, 0x3c, 0xc1,
  0x95, 0xb6, 0xee, 0xbd, 0xa3, 0xd7, 0xbb, 0xbf, 0x28, 0xc2, 0x80, 0xbe,
  0x61, 0xd5, 0x20, 0xbf, 0x89, 0xa8, 0x2f, 0xbf, 0x18, 0x53, 0xdb, 0x41,
  0x61, 0xb5, 0x44, 0xc1, 0xf9, 0xdb, 0x57, 0x41, 0x3e, 0xc1, 0x69, 0x3d,
  0xa2, 0xea, 0xb2, 0xc1, 0xa7, 0xb3, 0xc3, 0xc1, 0x47, 0xf0, 0x5d, 0xc1,
  0xb0, 0xb2, 0x5d, 0xc1, 0x93, 0x03, 0xe5, 0xc1, 0x01, 0x1e, 0x8e, 0xbd,
  0x79, 0x29, 0x70, 0xbe, 0x43, 0xdc, 0x64, 0xc1, 0x91, 0x1f, 0x6e, 0x41,
  0x1d, 0x3d, 0x9f, 0x41, 0x1c, 0xe7, 0x0b, 0xbe, 0xdd, 0x2b, 0xea, 0x41,
  0xf6, 0x48, 0x79, 0x3d, 0x2d, 0x25, 0xc6, 0x41, 0x6e, 0x21, 0xe3, 0x3f,
  0x46, 0xb5, 0xa8, 0xc1, 0x02, 0x71, 0x42, 0x3d, 0x4e, 0xb6, 0x97, 0x41,
  0x9d, 0x46, 0xb0, 0x41, 0xef, 0x73, 0xd0, 0xc1, 0x6a, 0x24, 0x6a, 0xc1,
  0xd9, 0x6d, 0xa4, 0x41, 0x1c, 0xd4, 0xc5, 0x41, 0x58, 0x8e, 0xce, 0x3d,
  0xa0, 0xcf, 0x92, 0xc1, 0x6f, 0x42, 0xa3, 0x3d, 0x19, 0xff, 0x5e, 0x3f,
  0xb2, 0xa2, 0x28, 0xbe, 0x0d, 0x7d, 0xc9, 0x40, 0x11, 0x05, 0x08, 0xc0,
  0xf7, 0x9d, 0x8e, 0x41, 0xe7, 0xec, 0x0c, 0x3f, 0x87, 0x82, 0x8d, 0xc0,
  0x75, 0xa3, 0x7f, 0xc1, 0x3e, 0xcb, 0x84, 0xc1, 0xe0, 0xba, 0x1f, 0xc1,
  0x5f, 0x47, 0xd0, 0xc0, 0x52, 0x3f, 0x4b, 0x3e, 0xb3, 0x16, 0x9f, 0x3e,
  0x50, 0x73, 0xfd, 0xc0, 0xa3, 0x53, 0x69, 0x41, 0x16, 0xe3, 0x37, 0x40,
  0xe7, 0x5a, 0x08, 0x3e, 0x88, 0x6f, 0x97, 0x41, 0x1c, 0x14, 0xee, 0x3d,
  0x3e, 0x10, 0x77, 0x40, 0x72, 0x92, 0x00, 0x40, 0x1a, 0x75, 0x98, 0x41,
  0xa4, 0x17, 0x79, 0x3e, 0xd5, 0x78, 0x9f, 0x40, 0x70, 0xe8, 0xc4, 0x40,
  0xf0, 0xdd, 0xf9, 0xc0, 0x0b, 0xb7, 0x85, 0xc1, 0x07, 0xa2, 0x87, 0x41,
  0x9a, 0x8a, 0x98, 0x41, 0x7f, 0xa1, 0x7a, 0x3e, 0x64, 0x35, 0x7c, 0xc1,
  0xa0, 0xf1, 0x44, 0x3e, 0x1d, 0x07, 0x57, 0x3f, 0x0f, 0xec, 0xca, 0x3e,
  0x35, 0x3c, 0x17, 0xc1, 0x45, 0x80, 0x6d, 0xc0, 0x42, 0x94, 0x82, 0xc1,
  0x7b, 0x73, 0xa2, 0xbe, 0x25, 0x7f, 0xb8, 0x40, 0x49, 0x67, 0x8c, 0x40,
  0x51, 0xbd, 0x07, 0x41, 0x2a, 0x66, 0x80, 0x40, 0xc8, 0x9c, 0x4a, 0xbf,
  0xc0, 0x0e, 0x3f, 0xbb, 0xcb, 0xcb, 0x77, 0xba, 0x79, 0x31, 0x45, 0x41,
  0x03, 0x5d, 0x1b, 0x40, 0x83, 0x32, 0x1c, 0xc1, 0x3e, 0xea, 0xb7, 0xbd,
  0x8a, 0x63, 0x17, 0xc1, 0x1c, 0x2f, 0x0b, 0xbe, 0xc8, 0xab, 0xd3, 0xbe,
  0x16, 0xc4, 0xab, 0xbf, 0x1c, 0xea, 0x0f, 0xc2, 0x2d, 0x85, 0xd8, 0xbd,
  0x9a, 0xd0, 0xad, 0xc0, 0xff, 0xad, 0x8d, 0xc0, 0x01, 0x42, 0x65, 0x40,
  0xc7, 0xba, 0x43, 0x41, 0x04, 0x58, 0x0c, 0xc1, 0xbc, 0x39, 0x0a, 0xc1,
  0xa0, 0x9f, 0x03, 0xbd, 0x00, 0x4f, 0x87, 0x41, 0x00, 0x64, 0x71, 0xbe,
  0x96, 0x42, 0x36, 0xbe, 0x30, 0x9f, 0xc2, 0xbe, 0xc2, 0x55, 0x4a, 0x3f,
  0x7f, 0xaf, 0x37, 0xc0, 0xcc, 0x35, 0x5b, 0xc0, 0xad, 0xc6, 0xff, 0xbe,
  0x6d, 0xa1, 0x82, 0xc0, 0x89, 0x15, 0x6a, 0xc1, 0x03, 0x54, 0x40, 0xc0,
  0x40, 0x3a, 0x04, 0x40, 0x12, 0x6e, 0xbc, 0xbf, 0x7d, 0xf3, 0x04, 0xbe,
  0xb0, 0x7a, 0x86, 0xbe, 0x45, 0x52, 0x3e, 0xc0, 0x44, 0x91, 0x88, 0x40,
  0x56, 0x9e, 0xfb, 0x3f, 0xad, 0xa3, 0xa4, 0xbd, 0xab, 0x78, 0x1f, 0x41,
  0x4c, 0x24, 0x03, 0xbe, 0xdc, 0xfd, 0x39, 0xc0, 0x8a, 0xb5, 0x0d, 0xc0,
  0x36, 0x28, 0xa2, 0x41, 0xc5, 0xcb, 0x21, 0xbe, 0xd5, 0x59, 0x9b, 0xc0,
  0xb0, 0x7c, 0x4c, 0x41, 0x04, 0x3b, 0xaf, 0x40, 0x8e, 0x39, 0x10, 0x40,
  0xa5, 0x0f, 0x5e, 0x41, 0xb1, 0x56, 0x54, 0x40, 0xd7, 0xbd, 0xc6, 0xbd,
  0x8e, 0x14, 0x52, 0x40, 0xf4, 0x7f, 0xab, 0xbe, 0x8d, 0x2a, 0x75, 0xbf,
  0xef, 0x24, 0xde, 0xbe, 0x68, 0x1a, 0x34, 0xc1, 0xab, 0xe6, 0xd5, 0x41,
  0xc8, 0x07, 0x37, 0xc1, 0x9b, 0xda, 0x88, 0x3e, 0xd5, 0xe4, 0x5a, 0x41,
  0x2f, 0x9e, 0xb9, 0x41, 0x9c, 0x94, 0x73, 0x41, 0xf8, 0xa0, 0xc8, 0x41,
  0x27, 0x29, 0x32, 0x41, 0xc9, 0xa7, 0x51, 0x3e, 0x53, 0x2c, 0xb5, 0x3d,
  0xb8, 0xb2, 0x6e, 0x41, 0x75, 0x41, 0x8c, 0xc1, 0xae, 0x3b, 0xa0, 0xc1,
  0xf7, 0x7e, 0x96, 0x3e, 0xa0, 0xdc, 0xa5, 0xc1, 0x4a, 0xfa, 0x9d, 0x3d,
  0x56, 0x9f, 0xae, 0xc1, 0x81, 0x6a, 0xf1, 0x3c, 0xc4, 0xc5, 0x71, 0xc1,
  0x4d, 0x02, 0xac, 0xbd, 0x56, 0x13, 0x62, 0xc1, 0x98, 0xbd, 0x50, 0xc1,
  0xc8, 0x69, 0xd9, 0x41, 0x09, 0x89, 0xd3, 0x41, 0x73, 0x3b, 0x9c, 0xc1,
  0xd5, 0xd0, 0x93, 0xc1, 0x23, 0xaf, 0x47, 0x3e, 0xa8, 0xd6, 0x46, 0x41,
  0x8d, 0xc5, 0x23, 0x3d, 0x5e, 0xae, 0xdf, 0x3d, 0x30, 0xbd, 0x1a, 0x3f,
  0x7d, 0x13, 0xa4, 0xc1, 0x68, 0xea, 0x71, 0x41, 0x33, 0x65, 0x68, 0xc1,
  0x2e, 0xa6, 0xcc, 0xbe, 0x26, 0x1c, 0x0f, 0xc0, 0x16, 0xe9, 0x0a, 0x41,
  0x40, 0xa8, 0x63, 0x41, 0xdd, 0x42, 0x44, 0x41, 0x2e, 0x66, 0xa6, 0x41,
  0xc9, 0x21, 0x72, 0xbe, 0x0d, 0xbf, 0x25, 0x3d, 0x05, 0x5a, 0x01, 0x41,
  0x0d, 0xc7, 0xbf, 0xc1, 0x20, 0x2d, 0xc3, 0xc1, 0x39, 0x2d, 0x4a, 0xbe,
  0x3e, 0x1d, 0x01, 0xc1, 0x7a, 0x75, 0x07, 0xbe, 0xbb, 0x8e, 0xaf, 0xc1,
  0x92, 0x9d, 0x5a, 0xbf, 0x62, 0x1d, 0x37, 0xc2, 0x15, 0x95, 0x13, 0xbe,
  0x04, 0x70, 0xe1, 0xc0, 0xbd, 0xef, 0x90, 0xc0, 0xb0, 0x2b, 0xa5, 0x41,
  0x62, 0xe5, 0x81, 0x41, 0x7d, 0x0d, 0xb8, 0xc0, 0xe8, 0x6b, 0x06, 0xc1,
  0x05, 0xcd, 0x34, 0xbe, 0xa7, 0xd7, 0x96, 0x41, 0x05, 0x73, 0x56, 0xbe,
  0x52, 0x0b, 0xb2, 0xbf, 0x5e, 0x51, 0x80, 0xbe, 0x4f, 0xe3, 0x3e, 0x41,
  0x47, 0x3c, 0x67, 0xc1, 0x13, 0x8e, 0x36, 0x41, 0xd3, 0x50, 0xc0, 0x3e,
  0x15, 0x4c, 0xf2, 0xc0, 0xee, 0xed, 0x1a, 0xc1, 0x03, 0x39, 0x8e, 0xc1,
  0x9b, 0xa5, 0xa7, 0xbf, 0x81, 0x48, 0x99, 0xc0, 0x33, 0xd4, 0x3b, 0x3e,
  0xa2, 0x66, 0xe1, 0x3e, 0xfa, 0x21, 0xa2, 0xc1, 0x8d, 0xca, 0x2f, 0x40,
  0x75, 0x71, 0x74, 0x40, 0x8f, 0xfb, 0x66, 0x3e, 0x93, 0x1d, 0xa3, 0x41,
  0x11, 0x1e, 0x4a, 0x3e, 0x07, 0x93, 0x27, 0x41, 0x98, 0x4c, 0xb9, 0x3f,
  0xbb, 0x1e, 0xcd, 0x41, 0xe8, 0x92, 0xa7, 0x3e, 0xf2, 0x02, 0xe2, 0x40,
  0x38, 0x87, 0x0a, 0x41, 0x89, 0x29, 0x7b, 0xc1, 0x7a, 0x9b, 0x87, 0xc1,
  0x14, 0xa5, 0xc6, 0x40, 0x5a, 0x8d, 0xd9, 0x3f, 0x82, 0x58, 0x82, 0x3e,
  0x2a, 0x9a, 0xa3, 0xc1, 0x35, 0x1b, 0x86, 0x3e, 0x2b, 0xed, 0x5e, 0x3f,
  0xdf, 0x76, 0xe0, 0x3e, 0x20, 0xc2, 0x80, 0xc0, 0x22, 0xd7, 0x0d, 0x41,
  0x66, 0x4a, 0xf1, 0xbf, 0x97, 0x1f, 0xc7, 0x3e, 0xc6, 0xc3, 0xd2, 0xc0,
  0x67, 0x6a, 0x5e, 0xc0, 0x1a, 0x7c, 0x61, 0x41, 0xc0, 0xe4, 0xaa, 0x40,
  0x29, 0xfc, 0x0b, 0x41, 0x18, 0x6f, 0xeb, 0x3c, 0xad, 0xab, 0xd6, 0x3d,
  0x85, 0x4c, 0x5d, 0xc0, 0x12, 0x9c, 0x56, 0x40, 0xcd, 0xbd, 0x3e, 0xc1,
  0x3f, 0x1e, 0x9f, 0x3d, 0x1f, 0xac, 0xcf, 0x40, 0xee, 0xb0, 0xde, 0x3d,
  0xe2, 0x20, 0x67, 0xc1, 0x45, 0xea, 0xad, 0x3f, 0xa5, 0xe4, 0x25, 0x42,
  0xef, 0xea, 0xc2, 0x3e, 0xbb, 0xe7, 0x13, 0xc1, 0x0b, 0xa8, 0xde, 0x40,
  0xe6, 0x9b, 0x2d, 0x41, 0xf3, 0x46, 0x62, 0x41, 0x3a, 0x90, 0x64, 0x40,
  0x6a, 0xd5, 0xf3, 0xc0, 0x24, 0x0b, 0x6a, 0x3e, 0x13, 0x89, 0x40, 0x41,
  0x22, 0x20, 0x4f, 0x3e, 0xee, 0x1c, 0x93, 0x3f, 0xc0, 0x1c, 0x7b, 0x3d,
  0x6e, 0x06, 0x9d, 0xc1, 0x5f, 0x10, 0x40, 0x41, 0x64, 0x25, 0x7e, 0xc1,
  0xa9, 0xf6, 0xd3, 0xbe, 0x5c, 0xf6, 0xb6, 0x41, 0x1b, 0x65, 0xa6, 0x41,
  0xa8, 0x4b, 0xd4, 0x41, 0x58, 0xc1, 0x99, 0x41, 0x99, 0xb8, 0xc4, 0x41,
  0x0c, 0xd3, 0x13, 0xbd, 0xe7, 0x30, 0x52, 0xbd, 0x9f, 0x9b, 0x73, 0x41,
  0xd4, 0x89, 0xcf, 0xc1, 0x74, 0xb8, 0xbd, 0xc1, 0xf7, 0xfc, 0x11, 0xbd,
  0xb7, 0xf9, 0x1e, 0xc1, 0x37, 0xca, 0x11, 0xbe, 0xb7, 0x42, 0x94, 0xc1,
  0x7b, 0x43, 0xb8, 0xbf, 0xe4, 0x8b, 0xfe, 0xc1, 0x87, 0x6f, 0x97, 0xbe,
  0xfd, 0x9b, 0x95, 0xc1, 0xc8, 0xa1, 0x97, 0xc1, 0xdb, 0x18, 0xb3, 0x41,
  0xac, 0xe3, 0x57, 0x41, 0xdb, 0xaa, 0x6d, 0xc1, 0x4d, 0x70, 0x4a, 0xc1,
  0x8f, 0x7b, 0xd8, 0xbd, 0xde, 0xbf, 0x81, 0x41, 0x00, 0xac, 0x6c, 0xbe,
  0x96, 0x23, 0xb6, 0xbf, 0x87, 0xf8, 0x0c, 0xbe, 0xb4, 0x7e, 0x28, 0xc1,
  0xed, 0xa3, 0xa6, 0x41, 0xec, 0xce, 0xa0, 0xc1, 0xd2, 0x65, 0xc4, 0x3e,
  0x6e, 0x7e, 0xa9, 0x41, 0x02, 0x34, 0xad, 0x41, 0x14, 0x45, 0x19, 0x42,
  0x11, 0x7a, 0x09, 0x42, 0x20, 0xfa, 0xdb, 0x41, 0xf4, 0x46, 0x3d, 0x3e,
  0xe2, 0x6f, 0x9b, 0x3e, 0x5b, 0x3c, 0xe3, 0x41, 0xba, 0x7b, 0xc0, 0xc1,
  0x7d, 0x20, 0xf8, 0xc1, 0x65, 0x42, 0x65, 0x3e, 0x32, 0xc5, 0xf1, 0xc1,
  0x11, 0x87, 0x96, 0x3d, 0x9c, 0xaa, 0x12, 0xc2, 0xb1, 0xa7, 0xd0, 0x3f,
  0xfd, 0x9b, 0xed, 0x41, 0xe8, 0x9b, 0x7e, 0x3e, 0x22, 0xfe, 0xdd, 0xc1,
  0xbe, 0x5b, 0xec, 0xc1, 0xe1, 0x45, 0x25, 0x42, 0x55, 0x27, 0x29, 0x42,
  0x79, 0x16, 0xd9, 0xc1, 0xc4, 0xde, 0x23, 0xc2, 0x76, 0xd3, 0x05, 0xbe,
  0xb8, 0xf1, 0x43, 0x41, 0x86, 0x49, 0x39, 0x3e, 0x77, 0x94, 0x3c, 0x3f,
  0x3b, 0x42, 0xdc, 0x3e, 0x38, 0x4d, 0x5a, 0x41, 0x62, 0x5f, 0x45, 0xc0,
  0x0b, 0xef, 0xa4, 0x40, 0xf6, 0x3d, 0x07, 0xbf, 0x91, 0xf7, 0xab, 0xc0,
  0x51, 0xc0, 0x4b, 0xc1, 0xde, 0xd5, 0x9e, 0xc1, 0x80, 0x43, 0x43, 0xc1,
  0x33, 0x80, 0x14, 0xc1, 0x55, 0x84, 0x99, 0xbe, 0xae, 0x9b, 0xdf, 0xbe,
  0xdf, 0xd2, 0x64, 0xc1, 0x07, 0xdc, 0x72, 0x41, 0xff, 0x94, 0x69, 0x41,
  0x29, 0x26, 0x5f, 0xbe, 0x1d, 0xbd, 0x9f, 0x41, 0xf4, 0x45, 0x38, 0xbe,
  0xd9, 0xb0, 0x54, 0x41, 0xac, 0x3a, 0x17, 0xc0, 0x45, 0xe8, 0xc2, 0xc1,
  0x19, 0xe3, 0xc1, 0xbe, 0x69, 0x99, 0x3d, 0x40, 0x2d, 0x54, 0x86, 0x41,
  0x68, 0x0b, 0x9e, 0xc1, 0x65, 0x53, 0x9b, 0xc1, 0xe8, 0x2d, 0x70, 0x41,
  0x46, 0xf6, 0x40, 0x41, 0x22, 0xf3, 0x3a, 0x3c, 0x2f, 0x13, 0x86, 0xc0,
  0xca, 0xea, 0xd3, 0xbe, 0x07, 0x29, 0x3c, 0xbf, 0xff, 0xc8, 0x94, 0xbd,
  0xa5, 0x93, 0xe0, 0xc1, 0xcf, 0xc6, 0xc8, 0x41, 0xcf, 0xbe, 0x4e, 0xc1,
  0xfe, 0xf4, 0xf8, 0x3e, 0x2f, 0x02, 0x31, 0x41, 0x3f, 0x4f, 0x44, 0x41,
  0x18, 0x9a, 0x95, 0x41, 0x76, 0x80, 0xea, 0x41, 0x96, 0x80, 0x04, 0x42,
  0xe0, 0x37, 0x24, 0x3e, 0xbf, 0xfe, 0xb9, 0x3e, 0x36, 0x50, 0xd4, 0x41,
  0x19, 0xf1, 0x6d, 0xc1, 0x42, 0x27, 0x16, 0xc2, 0x66, 0xd2, 0xe9, 0x3d,
  0x24, 0x7a, 0x8a, 0xc1, 0xbf, 0x42, 0xa0, 0x3d, 0xac, 0x9b, 0x02, 0xc2,
  0xd0, 0x2e, 0xd4, 0x3f, 0x37, 0x87, 0x32, 0x42, 0xde, 0x17, 0x8c, 0x3e,
  0x4a, 0x39, 0x8a, 0xc1, 0xdf, 0x30, 0xe7, 0xc1, 0x73, 0x02, 0xc9, 0x41,
  0xc4, 0x1b, 0x0c, 0x42, 0x8a, 0x3d, 0xa0, 0xc1, 0x83, 0x9f, 0x10, 0xc2,
  0x67, 0x7a, 0x07, 0xbe, 0x71, 0x66, 0xc8, 0x41, 0xfa, 0xc5, 0x61, 0x3e,
  0x10, 0xc0, 0x04, 0x3f, 0x71, 0x90, 0x12, 0x3e, 0xec, 0xe7, 0x93, 0xbf,
  0xe2, 0x55, 0x73, 0xc0, 0x78, 0x44, 0x0e, 0x41, 0x72, 0x22, 0x34, 0x3f,
  0x0b, 0xed, 0xe4, 0x40, 0xdc, 0x15, 0xb6, 0xc0, 0x3e, 0x98, 0x39, 0xc1,
  0xc1, 0x63, 0x68, 0x40, 0x07, 0x9f, 0x7b, 0x3f, 0xdb, 0x14, 0x40, 0x3e,
  0xb8, 0x5e, 0xfa, 0x3d, 0x1f, 0xd8, 0x2f, 0x41, 0xcf, 0x53, 0x0c, 0xc0,
  0x6a, 0x2d, 0xaf, 0x40, 0xac, 0xa5, 0x8d, 0x3e, 0x6f, 0x02, 0x71, 0xc0,
  0xa9, 0x91, 0x14, 0x3e, 0x28, 0xfb, 0x37, 0xc0, 0x0a, 0x07, 0x03, 0x40,
  0x87, 0x25, 0x12, 0x42, 0x45, 0xa4, 0x4e, 0x3e, 0x90, 0xea, 0x18, 0xc0,
  0x58, 0x13, 0xb5, 0x3f, 0x9d, 0xd4, 0xb4, 0xbf, 0xba, 0x99, 0x01, 0xc1,
  0x36, 0x4d, 0x6a, 0xc0, 0x26, 0x7f, 0xbb, 0x3f, 0x3a, 0x11, 0xbf, 0x3e,
  0xfd, 0xd8, 0xf5, 0x40, 0x49, 0xfc, 0x47, 0x3e, 0xe2, 0xb3, 0x86, 0x3f,
  0x85, 0x73, 0x71, 0x3e, 0x44, 0x36, 0xc2, 0x40, 0x45, 0x36, 0x16, 0xc1,
  0x63, 0xaf, 0x1b, 0x41, 0x68, 0xcf, 0x28, 0xbf, 0xf1, 0xdd, 0x5a, 0xc0,
  0x57, 0x21, 0x5c, 0xc0, 0xe3, 0xe9, 0xb6, 0xc0, 0xcc, 0x6c, 0x0a, 0xc1,
  0xfa, 0x45, 0xc9, 0xc0, 0x88, 0xe1, 0x82, 0xbe, 0xbd, 0x26, 0x9f, 0xbe,
  0xd8, 0xe8, 0x42, 0xc0, 0x9a, 0x9f, 0x9a, 0x41, 0x89, 0xd4, 0x18, 0x41,
  0x78, 0xe6, 0x68, 0xbe, 0x23, 0x7f, 0x65, 0x41, 0x94, 0x3f, 0x28, 0xbe,
  0x79, 0x4a, 0xcf, 0x40, 0x76, 0x28, 0xb2, 0xbf, 0x4e, 0xe2, 0x87, 0x40,
  0x2f, 0x1d, 0xaa, 0xbe, 0xb9, 0xc7, 0x61, 0x41, 0xf2, 0xb6, 0x0e, 0x41,
  0x39, 0x37, 0x6e, 0xc1, 0x97, 0x3d, 0x2d, 0xc1, 0x87, 0x36, 0x40, 0x41,
  0xce, 0xbd, 0xfa, 0x40, 0xca, 0xe7, 0x05, 0x3e, 0x48, 0x72, 0x7f, 0xc0,
  0xb3, 0x55, 0x24, 0xbe, 0x40, 0xb2, 0x76, 0xbf, 0x9a, 0x24, 0xcd, 0xbe,
  0x3f, 0x56, 0x36, 0xc0, 0x9e, 0xd8, 0x90, 0x41, 0x58, 0x75, 0xf2, 0xc0,
  0x52, 0x2b, 0xd7, 0x3e, 0xd4, 0xea, 0x0b, 0xc1, 0x90, 0x6b, 0x4e, 0x41,
  0xfb, 0x58, 0xb4, 0x40, 0xf0, 0x6b, 0xa7, 0x41, 0x27, 0xd7, 0x13, 0x41,
  0xd9, 0x89, 0x2a, 0x3e, 0x38, 0x6e, 0xbe, 0x3e, 0x01, 0x4b, 0x3d, 0x3f,
  0x80, 0xbf, 0xeb, 0xc0, 0x0f, 0x6e, 0xa0, 0xc1, 0xac, 0xe5, 0xbd, 0x3d,
  0xf8, 0xe3, 0x63, 0xc0, 0x3a, 0x98, 0x9b, 0x3d, 0x67, 0x6c, 0x4d, 0xc1,
  0xad, 0x47, 0xf9, 0x3f, 0xbe, 0x55, 0xb5, 0x41, 0x8c, 0x96, 0x91, 0x3e,
  0xde, 0xf3, 0xf1, 0xc0, 0x99, 0x15, 0x93, 0xc1, 0xbe, 0x85, 0xc9, 0x41,
  0x49, 0x2f, 0x91, 0x41, 0x18, 0x25, 0xc0, 0xc0, 0xc3, 0x77, 0x09, 0xc1,
  0xa1, 0xeb, 0xec, 0x3d, 0x0b, 0xff, 0x8b, 0x3f, 0x38, 0x91, 0x71, 0x3e,
  0x39, 0x6a, 0x7f, 0x3f, 0x05, 0x1c, 0xff, 0x3e, 0x2b, 0x5b, 0x96, 0x41,
  0x36, 0xcc, 0xaa, 0xc1, 0xce, 0x79, 0xa7, 0x41, 0xab, 0xf3, 0x0a, 0xbf,
  0x95, 0x9f, 0x63, 0xc1, 0xb4, 0x9e, 0x96, 0xc1, 0xab, 0x4b, 0x47, 0xc1,
  0xcc, 0x03, 0x90, 0xc1, 0x50, 0x4d, 0x55, 0xc1, 0x7c, 0x32, 0xb3, 0xbd,
  0x12, 0xc1, 0x95, 0xbe, 0xf8, 0x53, 0xb3, 0xc1, 0xda, 0x52, 0xa6, 0x41,
  0x40, 0x4b, 0x59, 0x40, 0x3e, 0x44, 0x15, 0xbe, 0x95, 0x50, 0x92, 0x41,
  0x04, 0x0c, 0x13, 0xbe, 0xdb, 0xf3, 0x97, 0x41, 0xab, 0x4a, 0x30, 0xbf,
  0x0b, 0x9a, 0x33, 0xc2, 0x08, 0x14, 0xf7, 0xbd, 0xcc, 0x34, 0x99, 0x41,
  0x45, 0x22, 0x90, 0x41, 0x52, 0x59, 0x98, 0xc1, 0xcb, 0xee, 0x20, 0xc1,
  0x7b, 0x2a, 0xa8, 0x41, 0x88, 0x54, 0xad, 0x41, 0x03, 0x41, 0x52, 0x3e,
  0x77, 0x7c, 0x91, 0xc1, 0xdb, 0x65, 0x16, 0xbe, 0xec, 0xd0, 0xa1, 0xbf,
  0xf0, 0xa4, 0xe2, 0xbe, 0x43, 0x9c, 0xb2, 0x40, 0x5f, 0xc6, 0x4b, 0xc1,
  0x56, 0xac, 0x8c, 0x41, 0x38, 0xa9, 0xce, 0xbe, 0x57, 0x60, 0xe3, 0xc0,
  0x09, 0x1d, 0x9a, 0xc1, 0xc7, 0xa9, 0x13, 0x3d, 0x21, 0x0e, 0x43, 0x40,
  0xd6, 0x82, 0x34, 0x40, 0xe6, 0x5a, 0x74, 0xbe, 0x77, 0x64, 0xc2, 0xbe,
  0x98, 0xc3, 0x9d, 0xc0, 0x33, 0x2a, 0x6f, 0xc0, 0xd3, 0x3f, 0xf8, 0x3f,
  0x37, 0xb0, 0xe1, 0xbd, 0x23, 0xa7, 0x00, 0x41, 0x42, 0xb3, 0x2f, 0xbe,
  0x47, 0x5a, 0x45, 0xc0, 0x26, 0x19, 0xb6, 0xbf, 0x54, 0x4f, 0x47, 0xc2,
  0xc4, 0xf6, 0xa4, 0xbe, 0x03, 0x37, 0x3f, 0xc0, 0x68, 0x1d, 0xce, 0x3f,
  0xcd, 0xa9, 0x2c, 0x41, 0x7a, 0x02, 0x1e, 0xc1, 0x21, 0xdc, 0x39, 0xc0,
  0x76, 0x83, 0xea, 0xc0, 0x4e, 0xa3, 0x0b, 0xbe, 0xcd, 0x2c, 0x56, 0xc1,
  0xcb, 0xea, 0x09, 0xbe, 0x22, 0x68, 0xc3, 0xbf, 0x6f, 0x35, 0x5b, 0xbe,
  0x61, 0xd4, 0xa9, 0x41, 0x9a, 0x11, 0xe9, 0xc1, 0xd9, 0x3f, 0x45, 0x41,
  0x18, 0xc0, 0x0f, 0xbf, 0x48, 0x9d, 0x82, 0xc1, 0xb2, 0x12, 0x23, 0xc1,
  0x92, 0xf1, 0xe7, 0xc1, 0x9f, 0xd3, 0x99, 0xc1, 0x0e, 0x26, 0xab, 0xc1,
  0xd7, 0x7b, 0x3c, 0xbe, 0x71, 0x7b, 0xc2, 0xbe, 0x7c, 0xbd, 0x92, 0xc1,
  0x56, 0x45, 0xa5, 0x41, 0x7e, 0x1d, 0x75, 0x41, 0x53, 0x28, 0x13, 0xbe,
  0x8a, 0x8e, 0x98, 0x41, 0x35, 0x28, 0x32, 0xbe, 0xb5, 0x55, 0xef, 0x41,
  0x00, 0xaf, 0x38, 0xbf, 0xf7, 0xf6, 0x91, 0xc1, 0xf8, 0x6b, 0x52, 0xbe,
  0xae, 0x0b, 0xab, 0x41, 0x47, 0x4f, 0x3a, 0x41, 0x4e, 0x57, 0xea, 0xc1,
  0xa8, 0xe0, 0xb9, 0xc1, 0x3f, 0xe6, 0xd5, 0x41, 0x2e, 0xd8, 0xc1, 0x41,
  0x2e, 0x7b, 0x06, 0x3b, 0x4f, 0x71, 0x5b, 0xc1, 0x58, 0x74, 0x2b, 0xbe,
  0x54, 0xbc, 0x90, 0xbf, 0xe4, 0x98, 0x13, 0xbf, 0x8e, 0x3d, 0x1d, 0x41,
  0x51, 0xd8, 0x79, 0xc1, 0x40, 0xa1, 0xfc, 0x40, 0x44, 0xc6, 0x63, 0x3f,
  0xc0, 0x41, 0x45, 0x40, 0xc9, 0xf6, 0x99, 0xc0, 0xe4, 0x24, 0xe8, 0xc0,
  0x87, 0xfa, 0x13, 0xc0, 0xfc, 0xc3, 0x21, 0xc1, 0x16, 0x2f, 0x41, 0x3e,
  0x93, 0xba, 0xb6, 0x3e, 0x85, 0xbc, 0x26, 0xc1, 0x2e, 0xe7, 0x08, 0x41,
  0x69, 0xfa, 0x04, 0x40, 0x51, 0xd0, 0x13, 0x3e, 0x82, 0x66, 0xf7, 0x40,
  0x9f, 0xb1, 0x42, 0x3e, 0x2f, 0x6f, 0x76, 0x41, 0x51, 0x69, 0xb9, 0x3f,
  0x36, 0x1c, 0xb5, 0x41, 0xee, 0xbb, 0x7f, 0x3e, 0x32, 0x6d, 0x58, 0x41,
  0xb3, 0x69, 0x9c, 0x41, 0xca, 0x67, 0x87, 0xc1, 0x30, 0xe2, 0x91, 0xc1,
  0x9d, 0xdb, 0x99, 0x41, 0x31, 0x37, 0x28, 0x40, 0xe3, 0x8d, 0xa5, 0xbd,
  0xae, 0x43, 0xdb, 0xc0, 0x4f, 0x84, 0xc9, 0x3e, 0xb5, 0x28, 0xbf, 0x3f,
  0x62, 0x6d, 0x48, 0x3f, 0x49, 0x52, 0x9f, 0x40, 0x79, 0x40, 0x9d, 0xc1,
  0x31, 0x1f, 0x83, 0x40, 0x53, 0x90, 0x0a, 0xbf, 0x8e, 0x42, 0x69, 0xc1,
  0xf3, 0x2a, 0x53, 0xc1, 0x27, 0x28, 0x69, 0xc0, 0xfe, 0xd7, 0x8e, 0xc0,
  0xfa, 0x1d, 0x91, 0xc1, 0x2f, 0xfa, 0x91, 0xbe, 0xb2, 0xee, 0x48, 0xbe,
  0x1a, 0x3c, 0x11, 0xc1, 0xcb, 0xb2, 0x6e, 0x41, 0x3f, 0x68, 0xbc, 0x41,
  0xd2, 0x23, 0x58, 0xbe, 0x9d, 0x07, 0xe5, 0x40, 0x12, 0xdc, 0x37, 0xbe,
  0x39, 0xb7, 0x7f, 0x41, 0x00, 0xb5, 0xf2, 0xbf, 0xf6, 0x4d, 0x52, 0xc1,
  0x7b, 0xcb, 0xb1, 0xbd, 0x84, 0xcb, 0x96, 0x41, 0x22, 0x16, 0x9f, 0x41,
  0xe7, 0x88, 0xb7, 0xc1, 0x2a, 0xc8, 0x78, 0xc1, 0x47, 0x6b, 0x5f, 0x41,
  0xc1, 0xbd, 0x29, 0x41, 0x4e, 0x5b, 0xc9, 0x3d, 0x45, 0x61, 0x38, 0xc1,
  0x6a, 0xb7, 0xca, 0xbd, 0x3c, 0xde, 0x73, 0xbf, 0xe3, 0x3f, 0xeb, 0xbe,
  0xc2, 0xf1, 0x50, 0xc0, 0x1c, 0x5d, 0x7a, 0x40, 0xe7, 0xca, 0xa9, 0xbf,
  0x70, 0xf1, 0xdd, 0xbe, 0x01, 0x0d, 0xb8, 0x40, 0x9d, 0x0b, 0x41, 0x40,
  0x31, 0x58, 0x38, 0xc0, 0xd2, 0x12, 0x2f, 0xc1, 0xc9, 0x57, 0x84, 0xc1,
  0x69, 0x20, 0xe6, 0xbe, 0xfe, 0x8c, 0xbf, 0xbe, 0xfa, 0x96, 0x42, 0x41,
  0x7e, 0x91, 0x98, 0xc0, 0xdf, 0x7c, 0x90, 0x40, 0x49, 0xf0, 0x60, 0xbe,
  0xaf, 0x2a, 0x89, 0x3f, 0x19, 0x59, 0xe5, 0xbd, 0x80, 0xb2, 0x13, 0x41,
  0xd1, 0xbd, 0xfa, 0xb9, 0x60, 0x64, 0x0c, 0xc2, 0xd5, 0x08, 0x52, 0xbb,
  0x5c, 0x0e, 0xd4, 0x40, 0x93, 0x85, 0x39, 0xbe, 0x71, 0x5a, 0x2b, 0xc1,
  0xa3, 0xc5, 0x1e, 0xc1, 0xd0, 0x43, 0x9d, 0x40, 0x4e, 0x43, 0x2c, 0x41,
  0x2d, 0x0a, 0x60, 0xbd, 0x91, 0xe6, 0x22, 0x41, 0xc7, 0x3c, 0xd6, 0xbb,
  0xdc, 0x9d, 0x90, 0xbf, 0xa9, 0x19, 0x00, 0xbe, 0xc8, 0xd1, 0xa1, 0x41,
  0x13, 0x7f, 0x2c, 0xc1, 0x08, 0x09, 0x6f, 0x40, 0xd3, 0xa2, 0x07, 0x3f,
  0xb5, 0x32, 0x70, 0xc0, 0x38, 0x40, 0x40, 0xc1, 0xa0, 0x81, 0x00, 0xc1,
  0x9f, 0xb2, 0x78, 0xc1, 0x8d, 0xb0, 0x0b, 0xc1, 0x0e, 0x91, 0x6c, 0x3e,
  0xd3, 0x53, 0x86, 0x3c, 0xc3, 0x7b, 0x29, 0xc1, 0xde, 0x93, 0x5e, 0x40,
  0xc1, 0x11, 0xbd, 0x40, 0x56, 0x95, 0x42, 0x3e, 0x29, 0x76, 0x88, 0x41,
  0xfe, 0x14, 0xbd, 0x3d, 0x1f, 0xa3, 0x8d, 0x41, 0xda, 0x8a, 0x91, 0x3f,
  0x71, 0xbc, 0xbd, 0x41, 0xbc, 0x06, 0x1d, 0x3e, 0xb5, 0xc5, 0x80, 0x41,
  0xc2, 0xd3, 0x8b, 0x3f, 0x8c, 0x85, 0xe9, 0x3e, 0x34, 0xe8, 0xeb, 0xbf,
  0x9b, 0x93, 0x8b, 0x40, 0x2a, 0x9c, 0x16, 0x41, 0x7b, 0x93, 0xa0, 0x3e,
  0x56, 0x54, 0x9e, 0xc1, 0x5e, 0x66, 0x85, 0x3e, 0xc8, 0x1e, 0x78, 0x3f,
  0xeb, 0x77, 0x80, 0x3e, 0x8b, 0x61, 0x4a, 0xc1, 0x68, 0x10, 0x38, 0x41,
  0xd4, 0x65, 0x7b, 0xc1, 0x10, 0x3a, 0xfc, 0xbe, 0x37, 0x1f, 0x95, 0x41,
  0xc5, 0x72, 0xd3, 0x41, 0x54, 0x7f, 0x98, 0x41, 0xc5, 0x51, 0x26, 0x41,
  0xd7, 0x84, 0xcd, 0x41, 0x00, 0xc0, 0x00, 0x3e, 0x80, 0x01, 0x98, 0x3e,
  0xc4, 0x48, 0x79, 0x41, 0xcd, 0x8e, 0x52, 0xc1, 0x3d, 0xbd, 0x3e, 0xc1,
  0xed, 0x6d, 0x32, 0xbe, 0x50, 0x56, 0x76, 0xc1, 0xb6, 0xbb, 0x12, 0xbe,
  0xfa, 0xde, 0x2e, 0xc1, 0xb5, 0x78, 0x0a, 0xc0, 0x81, 0x68, 0x20, 0xc2,
  0xfd, 0x5f, 0x13, 0xbe, 0x30, 0x9d, 0xa3, 0xc1, 0x5c, 0xe7, 0x83, 0xc1,
  0xb0, 0x6e, 0x2e, 0x41, 0x69, 0x65, 0xbc, 0x41, 0x70, 0x5b, 0x64, 0xc1,
  0x0a, 0x21, 0x2c, 0xc1, 0xa0, 0xee, 0x44, 0xbe, 0x66, 0xd8, 0xbe, 0x41,
  0xcc, 0xa1, 0x33, 0xbe, 0x0c, 0xef, 0x3f, 0xbf, 0xac, 0xbc, 0xc6, 0x3e,
  0xbe, 0x6f, 0x9a, 0xc1, 0x05, 0x86, 0xc3, 0x41, 0x38, 0x6c, 0x7e, 0xc1,
  0x98, 0xea, 0x15, 0xbf, 0xfc, 0x89, 0xf7, 0xbf, 0x0f, 0x62, 0x0d, 0x41,
  0xd0, 0xcb, 0x5a, 0x41, 0x6f, 0xb7, 0xe1, 0x41, 0xbe, 0x60, 0xc5, 0x41,
  0x60, 0x86, 0xfd, 0xbb, 0x28, 0xfa, 0x90, 0xbc, 0xd1, 0x34, 0x36, 0x41,
  0x0e, 0xe1, 0xdb, 0xc1, 0x17, 0x58, 0xc5, 0xc1, 0x39, 0x26, 0x56, 0xbe,
  0x34, 0x09, 0x88, 0xc1, 0x93, 0x8c, 0x65, 0xbe, 0x58, 0xe8, 0x72, 0xc1,
  0xd3, 0x3b, 0x16, 0xc0, 0xf0, 0xec, 0x86, 0x41, 0x34, 0x95, 0xc8, 0xbe,
  0x82, 0xde, 0x4a, 0xc1, 0xb2, 0x71, 0x84, 0xc1, 0xef, 0x10, 0x9c, 0x41,
  0xd5, 0x5d, 0x77, 0x41, 0x72, 0x15, 0xcc, 0xc1, 0x3c, 0x10, 0xbd, 0xc1,
  0x6e, 0x3b, 0xc3, 0xbd, 0xf4, 0x89, 0x66, 0x41, 0xa7, 0x3f, 0xc6, 0xbe,
  0x82, 0xa6, 0x50, 0xbd, 0xb0, 0xb6, 0x1d, 0xbf, 0x00, 0x00, 0x06, 0x00,
  0x08, 0x00, 0x04, 0x00, 0x06, 0x00, 0x00, 0x00, 0x04, 0x00, 0x00, 0x00,
  0x80, 0x00, 0x00, 0x00, 0x87, 0x2c, 0xad, 0x41, 0x9c, 0xdb, 0x72, 0xc2,
  0x8d, 0x6d, 0x8e, 0xc2, 0x5c, 0x48, 0x2e, 0x42, 0xb3, 0xca, 0x4e, 0x42,
  0x4b, 0x50, 0x84, 0x42, 0x35, 0xa8, 0x7d, 0x42, 0x6f, 0xd2, 0x77, 0x42,
  0x77, 0x6f, 0x02, 0xc1, 0x74, 0x37, 0x82, 0xc2, 0x18, 0x89, 0x0a, 0x42,
  0x4c, 0x61, 0x78, 0x42, 0xfa, 0x0e, 0x12, 0xc2, 0xbc, 0xc6, 0x4e, 0x42,
  0xeb, 0x9f, 0x88, 0xc2, 0x6c, 0xda, 0x50, 0xc2, 0x8f, 0x69, 0x42, 0x42,
  0xc6, 0xb3, 0x66, 0xc2, 0xd9, 0xe7, 0x93, 0x42, 0xaf, 0x9d, 0x56, 0xc2,
  0x65, 0x82, 0x8e, 0xc2, 0x11, 0x69, 0x88, 0x42, 0x5b, 0x55, 0x80, 0xc2,
  0x54, 0x84, 0x58, 0x42, 0x2c, 0x1d, 0x82, 0x42, 0x84, 0x56, 0x83, 0x42,
  0x49, 0xca, 0xa9, 0xc2, 0x40, 0xb8, 0x75, 0x42, 0x1c, 0x80, 0x4c, 0x42,
  0x85, 0x49, 0x61, 0xc2, 0xed, 0x64, 0xfb, 0x41, 0xea, 0xad, 0x75, 0x42,
  0x30, 0xf4, 0xff, 0xff, 0x34, 0xf4, 0xff, 0xff, 0x0f, 0x00, 0x00, 0x00,
  0x4d, 0x4c, 0x49, 0x52, 0x20, 0x43, 0x6f, 0x6e, 0x76, 0x65, 0x72, 0x74,
  0x65, 0x64, 0x2e, 0x00, 0x01, 0x00, 0x00, 0x00, 0x14, 0x00, 0x00, 0x00,
  0x00, 0x00, 0x0e, 0x00, 0x18, 0x00, 0x14, 0x00, 0x10, 0x00, 0x0c, 0x00,
  0x08, 0x00, 0x04, 0x00, 0x0e, 0x00, 0x00, 0x00, 0x14, 0x00, 0x00, 0x00,
  0x1c, 0x00, 0x00, 0x00, 0x48, 0x01, 0x00, 0x00, 0x4c, 0x01, 0x00, 0x00,
  0x50, 0x01, 0x00, 0x00, 0x04, 0x00, 0x00, 0x00, 0x6d, 0x61, 0x69, 0x6e,
  0x00, 0x00, 0x00, 0x00, 0x05, 0x00, 0x00, 0x00, 0xf0, 0x00, 0x00, 0x00,
  0xa8, 0x00, 0x00, 0x00, 0x70, 0x00, 0x00, 0x00, 0x38, 0x00, 0x00, 0x00,
  0x04, 0x00, 0x00, 0x00, 0x32, 0xff, 0xff, 0xff, 0x10, 0x00, 0x00, 0x00,
  0x00, 0x00, 0x00, 0x08, 0x0c, 0x00, 0x00, 0x00, 0x10, 0x00, 0x00, 0x00,
  0xb4, 0xf4, 0xff, 0xff, 0x01, 0x00, 0x00, 0x00, 0x0f, 0x00, 0x00, 0x00,
  0x03, 0x00, 0x00, 0x00, 0x0e, 0x00, 0x00, 0x00, 0x08, 0x00, 0x00, 0x00,
  0x07, 0x00, 0x00, 0x00, 0x62, 0xff, 0xff, 0xff, 0x10, 0x00, 0x00, 0x00,
  0x00, 0x00, 0x00, 0x08, 0x10, 0x00, 0x00, 0x00, 0x14, 0x00, 0x00, 0x00,
  0x52, 0xff, 0xff, 0xff, 0x00, 0x00, 0x00, 0x01, 0x01, 0x00, 0x00, 0x00,
  0x0e, 0x00, 0x00, 0x00, 0x03, 0x00, 0x00, 0x00, 0x0d, 0x00, 0x00, 0x00,
  0x06, 0x00, 0x00, 0x00, 0x05, 0x00, 0x00, 0x00, 0x96, 0xff, 0xff, 0xff,
  0x10, 0x00, 0x00, 0x00, 0x00, 0x00, 0x00, 0x08, 0x10, 0x00, 0x00, 0x00,
  0x14, 0x00, 0x00, 0x00, 0x86, 0xff, 0xff, 0xff, 0x00, 0x00, 0x00, 0x01,
  0x01, 0x00, 0x00, 0x00, 0x0d, 0x00, 0x00, 0x00, 0x03, 0x00, 0x00, 0x00,
  0x0c, 0x00, 0x00, 0x00, 0x04, 0x00, 0x00, 0x00, 0x03, 0x00, 0x00, 0x00,
  0xca, 0xff, 0xff, 0xff, 0x10, 0x00, 0x00, 0x00, 0x00, 0x00, 0x00, 0x08,
  0x10, 0x00, 0x00, 0x00, 0x14, 0x00, 0x00, 0x00, 0xba, 0xff, 0xff, 0xff,
  0x00, 0x00, 0x00, 0x01, 0x01, 0x00, 0x00, 0x00, 0x0c, 0x00, 0x00, 0x00,
  0x03, 0x00, 0x00, 0x00, 0x0b, 0x00, 0x00, 0x00, 0x02, 0x00, 0x00, 0x00,
  0x01, 0x00, 0x00, 0x00, 0x00, 0x00, 0x0e, 0x00, 0x16, 0x00, 0x00, 0x00,
  0x10, 0x00, 0x0c, 0x00, 0x0b, 0x00, 0x04, 0x00, 0x0e, 0x00, 0x00, 0x00,
  0x18, 0x00, 0x00, 0x00, 0x00, 0x00, 0x00, 0x08, 0x18, 0x00, 0x00, 0x00,
  0x1c, 0x00, 0x00, 0x00, 0x00, 0x00, 0x06, 0x00, 0x08, 0x00, 0x07, 0x00,
  0x06, 0x00, 0x00, 0x00, 0x00, 0x00, 0x00, 0x01, 0x01, 0x00, 0x00, 0x00,
  0x0b, 0x00, 0x00, 0x00, 0x03, 0x00, 0x00, 0x00, 0x00, 0x00, 0x00, 0x00,
  0x0a, 0x00, 0x00, 0x00, 0x09, 0x00, 0x00, 0x00, 0x01, 0x00, 0x00, 0x00,
  0x0f, 0x00, 0x00, 0x00, 0x01, 0x00, 0x00, 0x00, 0x00, 0x00, 0x00, 0x00,
  0x10, 0x00, 0x00, 0x00, 0x0c, 0x0a, 0x00, 0x00, 0x70, 0x09, 0x00, 0x00,
  0x74, 0x08, 0x00, 0x00, 0xf0, 0x07, 0x00, 0x00, 0x08, 0x07, 0x00, 0x00,
  0x84, 0x06, 0x00, 0x00, 0x9c, 0x05, 0x00, 0x00, 0x38, 0x05, 0x00, 0x00,
  0x70, 0x04, 0x00, 0x00, 0x1c, 0x04, 0x00, 0x00, 0xd4, 0x03, 0x00, 0x00,
  0x44, 0x03, 0x00, 0x00, 0x50, 0x02, 0x00, 0x00, 0x58, 0x01, 0x00, 0x00,
  0x60, 0x00, 0x00, 0x00, 0x04, 0x00, 0x00, 0x00, 0x4a, 0xf6, 0xff, 0xff,
  0x00, 0x00, 0x00, 0x01, 0x14, 0x00, 0x00, 0x00, 0x1c, 0x00, 0x00, 0x00,
  0x1c, 0x00, 0x00, 0x00, 0x10, 0x00, 0x00, 0x00, 0x34, 0x00, 0x00, 0x00,
  0x02, 0x00, 0x00, 0x00, 0xff, 0xff, 0xff, 0xff, 0x01, 0x00, 0x00, 0x00,
  0x34, 0xf6, 0xff, 0xff, 0x19, 0x00, 0x00, 0x00, 0x53, 0x74, 0x61, 0x74,
  0x65, 0x66, 0x75, 0x6c, 0x50, 0x61, 0x72, 0x74, 0x69, 0x74, 0x69, 0x6f,
  0x6e, 0x65, 0x64, 0x43, 0x61, 0x6c, 0x6c, 0x3a, 0x30, 0x00, 0x00, 0x00,
  0x02, 0x00, 0x00, 0x00, 0x01, 0x00, 0x00, 0x00, 0x01, 0x00, 0x00, 0x00,
  0xa2, 0xf6, 0xff, 0xff, 0x00, 0x00, 0x00, 0x01, 0x14, 0x00, 0x00, 0x00,
  0x1c, 0x00, 0x00, 0x00, 0x1c, 0x00, 0x00, 0x00, 0x0f, 0x00, 0x00, 0x00,
  0xd0, 0x00, 0x00, 0x00, 0x02, 0x00, 0x00, 0x00, 0xff, 0xff, 0xff, 0xff,
  0x20, 0x00, 0x00, 0x00, 0x8c, 0xf6, 0xff, 0xff, 0xb7, 0x00, 0x00, 0x00,
  0x73, 0x65, 0x71, 0x75, 0x65, 0x6e, 0x74, 0x69, 0x61, 0x6c, 0x2f, 0x62,
  0x61, 0x74, 0x63, 0x68, 0x5f, 0x6e, 0x6f, 0x72, 0x6d, 0x61, 0x6c, 0x69,
  0x7a, 0x61, 0x74, 0x69, 0x6f, 0x6e, 0x5f, 0x32, 0x2f, 0x62, 0x61, 0x74,
  0x63, 0x68, 0x6e, 0x6f, 0x72, 0x6d, 0x2f, 0x6d, 0x75, 0x6c, 0x5f, 0x31,
  0x3b, 0x73, 0x65, 0x71, 0x75, 0x65, 0x6e, 0x74, 0x69, 0x61, 0x6c, 0x2f,
  0x62, 0x61, 0x74, 0x63, 0x68, 0x5f, 0x6e, 0x6f, 0x72, 0x6d, 0x61, 0x6c,
  0x69, 0x7a, 0x61, 0x74, 0x69, 0x6f, 0x6e, 0x5f, 0x32, 0x2f, 0x62, 0x61,
  0x74, 0x63, 0x68, 0x6e, 0x6f, 0x72, 0x6d, 0x2f, 0x61, 0x64, 0x64, 0x5f,
  0x31, 0x3b, 0x73, 0x65, 0x71, 0x75, 0x65, 0x6e, 0x74, 0x69, 0x61, 0x6c,
  0x2f, 0x64, 0x65, 0x6e, 0x73, 0x65, 0x5f, 0x33, 0x2f, 0x4d, 0x61, 0x74,
  0x4d, 0x75, 0x6c, 0x3b, 0x73, 0x65, 0x71, 0x75, 0x65, 0x6e, 0x74, 0x69,
  0x61, 0x6c, 0x2f, 0x64, 0x65, 0x6e, 0x73, 0x65, 0x5f, 0x33, 0x2f, 0x72,
  0x65, 0x5f, 0x6c, 0x75, 0x5f, 0x33, 0x2f, 0x52, 0x65, 0x6c, 0x75, 0x3b,
  0x73, 0x65, 0x71, 0x75, 0x65, 0x6e, 0x74, 0x69, 0x61, 0x6c, 0x2f, 0x64,
  0x65, 0x6e, 0x73, 0x65, 0x5f, 0x33, 0x2f, 0x42, 0x69, 0x61, 0x73, 0x41,
  0x64, 0x64, 0x31, 0x00, 0x02, 0x00, 0x00, 0x00, 0x01, 0x00, 0x00, 0x00,
  0x20, 0x00, 0x00, 0x00, 0x96, 0xf7, 0xff, 0xff, 0x00, 0x00, 0x00, 0x01,
  0x14, 0x00, 0x00, 0x00, 0x1c, 0x00, 0x00, 0x00, 0x1c, 0x00, 0x00, 0x00,
  0x0e, 0x00, 0x00, 0x00, 0xd0, 0x00, 0x00, 0x00, 0x02, 0x00, 0x00, 0x00,
  0xff, 0xff, 0xff, 0xff, 0x20, 0x00, 0x00, 0x00, 0x80, 0xf7, 0xff, 0xff,
  0xb7, 0x00, 0x00, 0x00, 0x73, 0x65, 0x71, 0x75, 0x65, 0x6e, 0x74, 0x69,
  0x61, 0x6c, 0x2f, 0x62, 0x61, 0x74, 0x63, 0x68, 0x5f, 0x6e, 0x6f, 0x72,
  0x6d, 0x61, 0x6c, 0x69, 0x7a, 0x61, 0x74, 0x69, 0x6f, 0x6e, 0x5f, 0x31,
  0x2f, 0x62, 0x61, 0x74, 0x63, 0x68, 0x6e, 0x6f, 0x72, 0x6d, 0x2f, 0x6d,
  0x75, 0x6c, 0x5f, 0x31, 0x3b, 0x73, 0x65, 0x71, 0x75, 0x65, 0x6e, 0x74,
  0x69, 0x61, 0x6c, 0x2f, 0x62, 0x61, 0x74, 0x63, 0x68, 0x5f, 0x6e, 0x6f,
  0x72, 0x6d, 0x61, 0x6c, 0x69, 0x7a, 0x61, 0x74, 0x69, 0x6f, 0x6e, 0x5f,
  0x31, 0x2f, 0x62, 0x61, 0x74, 0x63, 0x68, 0x6e, 0x6f, 0x72, 0x6d, 0x2f,
  0x61, 0x64, 0x64, 0x5f, 0x31, 0x3b, 0x73, 0x65, 0x71, 0x75, 0x65, 0x6e,
  0x74, 0x69, 0x61, 0x6c, 0x2f, 0x64, 0x65, 0x6e, 0x73, 0x65, 0x5f, 0x32,
  0x2f, 0x4d, 0x61, 0x74, 0x4d, 0x75, 0x6c, 0x3b, 0x73, 0x65, 0x71, 0x75,
  0x65, 0x6e, 0x74, 0x69, 0x61, 0x6c, 0x2f, 0x64, 0x65, 0x6e, 0x73, 0x65,
  0x5f, 0x32, 0x2f, 0x72, 0x65, 0x5f, 0x6c, 0x75, 0x5f, 0x32, 0x2f, 0x52,
  0x65, 0x6c, 0x75, 0x3b, 0x73, 0x65, 0x71, 0x75, 0x65, 0x6e, 0x74, 0x69,
  0x61, 0x6c, 0x2f, 0x64, 0x65, 0x6e, 0x73, 0x65, 0x5f, 0x32, 0x2f, 0x42,
  0x69, 0x61, 0x73, 0x41, 0x64, 0x64, 0x31, 0x00, 0x02, 0x00, 0x00, 0x00,
  0x01, 0x00, 0x00, 0x00, 0x20, 0x00, 0x00, 0x00, 0x8a, 0xf8, 0xff, 0xff,
  0x00, 0x00, 0x00, 0x01, 0x14, 0x00, 0x00, 0x00, 0x1c, 0x00, 0x00, 0x00,
  0x1c, 0x00, 0x00, 0x00, 0x0d, 0x00, 0x00, 0x00, 0xcc, 0x00, 0x00, 0x00,
  0x02, 0x00, 0x00, 0x00, 0xff, 0xff, 0xff, 0xff, 0x20, 0x00, 0x00, 0x00,
  0x74, 0xf8, 0xff, 0xff, 0xb3, 0x00, 0x00, 0x00, 0x73, 0x65, 0x71, 0x75,
  0x65, 0x6e, 0x74, 0x69, 0x61, 0x6c, 0x2f, 0x62, 0x61, 0x74, 0x63, 0x68,
  0x5f, 0x6e, 0x6f, 0x72, 0x6d, 0x61, 0x6c, 0x69, 0x7a, 0x61, 0x74, 0x69,
  0x6f, 0x6e, 0x2f, 0x62, 0x61, 0x74, 0x63, 0x68, 0x6e, 0x6f, 0x72, 0x6d,
  0x2f, 0x6d, 0x75, 0x6c, 0x5f, 0x31, 0x3b, 0x73, 0x65, 0x71, 0x75, 0x65,
  0x6e, 0x74, 0x69, 0x61, 0x6c, 0x2f, 0x62, 0x61, 0x74, 0x63, 0x68, 0x5f,
  0x6e, 0x6f, 0x72, 0x6d, 0x61, 0x6c, 0x69, 0x7a, 0x61, 0x74, 0x69, 0x6f,
  0x6e, 0x2f, 0x62, 0x61, 0x74, 0x63, 0x68, 0x6e, 0x6f, 0x72, 0x6d, 0x2f,
  0x61, 0x64, 0x64, 0x5f, 0x31, 0x3b, 0x73, 0x65, 0x71, 0x75, 0x65, 0x6e,
  0x74, 0x69, 0x61, 0x6c, 0x2f, 0x64, 0x65, 0x6e, 0x73, 0x65, 0x5f, 0x31,
  0x2f, 0x4d, 0x61, 0x74, 0x4d, 0x75, 0x6c, 0x3b, 0x73, 0x65, 0x71, 0x75,
  0x65, 0x6e, 0x74, 0x69, 0x61, 0x6c, 0x2f, 0x64, 0x65, 0x6e, 0x73, 0x65,
  0x5f, 0x31, 0x2f, 0x72, 0x65, 0x5f, 0x6c, 0x75, 0x5f, 0x31, 0x2f, 0x52,
  0x65, 0x6c, 0x75, 0x3b, 0x73, 0x65, 0x71, 0x75, 0x65, 0x6e, 0x74, 0x69,
  0x61, 0x6c, 0x2f, 0x64, 0x65, 0x6e, 0x73, 0x65, 0x5f, 0x31, 0x2f, 0x42,
  0x69, 0x61, 0x73, 0x41, 0x64, 0x64, 0x31, 0x00, 0x02, 0x00, 0x00, 0x00,
  0x01, 0x00, 0x00, 0x00, 0x20, 0x00, 0x00, 0x00, 0x7a, 0xf9, 0xff, 0xff,
  0x00, 0x00, 0x00, 0x01, 0x14, 0x00, 0x00, 0x00, 0x1c, 0x00, 0x00, 0x00,
  0x1c, 0x00, 0x00, 0x00, 0x0c, 0x00, 0x00, 0x00, 0x68, 0x00, 0x00, 0x00,
  0x02, 0x00, 0x00, 0x00, 0xff, 0xff, 0xff, 0xff, 0x20, 0x00, 0x00, 0x00,
  0x64, 0xf9, 0xff, 0xff, 0x4c, 0x00, 0x00, 0x00, 0x73, 0x65, 0x71, 0x75,
  0x65, 0x6e, 0x74, 0x69, 0x61, 0x6c, 0x2f, 0x64, 0x65, 0x6e, 0x73, 0x65,
  0x2f, 0x4d, 0x61, 0x74, 0x4d, 0x75, 0x6c, 0x3b, 0x73, 0x65, 0x71, 0x75,
  0x65, 0x6e, 0x74, 0x69, 0x61, 0x6c, 0x2f, 0x64, 0x65, 0x6e, 0x73, 0x65,
  0x2f, 0x72, 0x65, 0x5f, 0x6c, 0x75, 0x2f, 0x52, 0x65, 0x6c, 0x75, 0x3b,
  0x73, 0x65, 0x71, 0x75, 0x65, 0x6e, 0x74, 0x69, 0x61, 0x6c, 0x2f, 0x64,
  0x65, 0x6e, 0x73, 0x65, 0x2f, 0x42, 0x69, 0x61, 0x73, 0x41, 0x64, 0x64,
  0x00, 0x00, 0x00, 0x00, 0x02, 0x00, 0x00, 0x00, 0x01, 0x00, 0x00, 0x00,
  0x20, 0x00, 0x00, 0x00, 0x9e, 0xfa, 0xff, 0xff, 0x00, 0x00, 0x00, 0x01,
  0x10, 0x00, 0x00, 0x00, 0x10, 0x00, 0x00, 0x00, 0x0b, 0x00, 0x00, 0x00,
  0x24, 0x00, 0x00, 0x00, 0xe0, 0xf9, 0xff, 0xff, 0x17, 0x00, 0x00, 0x00,
  0x73, 0x65, 0x71, 0x75, 0x65, 0x6e, 0x74, 0x69, 0x61, 0x6c, 0x2f, 0x64,
  0x65, 0x6e, 0x73, 0x65, 0x2f, 0x4d, 0x61, 0x74, 0x4d, 0x75, 0x6c, 0x00,
  0x02, 0x00, 0x00, 0x00, 0x20, 0x00, 0x00, 0x00, 0x02, 0x00, 0x00, 0x00,
  0xe2, 0xfa, 0xff, 0xff, 0x00, 0x00, 0x00, 0x01, 0x10, 0x00, 0x00, 0x00,
  0x10, 0x00, 0x00, 0x00, 0x0a, 0x00, 0x00, 0x00, 0x34, 0x00, 0x00, 0x00,
  0x24, 0xfa, 0xff, 0xff, 0x27, 0x00, 0x00, 0x00, 0x73, 0x65, 0x71, 0x75,
  0x65, 0x6e, 0x74, 0x69, 0x61, 0x6c, 0x2f, 0x64, 0x65, 0x6e, 0x73, 0x65,
  0x2f, 0x42, 0x69, 0x61, 0x73, 0x41, 0x64, 0x64, 0x2f, 0x52, 0x65, 0x61,
  0x64, 0x56, 0x61, 0x72, 0x69, 0x61, 0x62, 0x6c, 0x65, 0x4f, 0x70, 0x00,
  0x01, 0x00, 0x00, 0x00, 0x20, 0x00, 0x00, 0x00, 0x32, 0xfb, 0xff, 0xff,
  0x00, 0x00, 0x00, 0x01, 0x10, 0x00, 0x00, 0x00, 0x10, 0x00, 0x00, 0x00,
  0x09, 0x00, 0x00, 0x00, 0xa4, 0x00, 0x00, 0x00, 0x74, 0xfa, 0xff, 0xff,
  0x96, 0x00, 0x00, 0x00, 0x73, 0x65, 0x71, 0x75, 0x65, 0x6e, 0x74, 0x69,
  0x61, 0x6c, 0x2f, 0x62, 0x61, 0x74, 0x63, 0x68, 0x5f, 0x6e, 0x6f, 0x72,
  0x6d, 0x61, 0x6c, 0x69, 0x7a, 0x61, 0x74, 0x69, 0x6f, 0x6e, 0x5f, 0x33,
  0x2f, 0x62, 0x61, 0x74, 0x63, 0x68, 0x6e, 0x6f, 0x72, 0x6d, 0x2f, 0x6d,
  0x75, 0x6c, 0x5f, 0x31, 0x3b, 0x73, 0x65, 0x71, 0x75, 0x65, 0x6e, 0x74,
  0x69, 0x61, 0x6c, 0x2f, 0x62, 0x61, 0x74, 0x63, 0x68, 0x5f, 0x6e, 0x6f,
  0x72, 0x6d, 0x61, 0x6c, 0x69, 0x7a, 0x61, 0x74, 0x69, 0x6f, 0x6e, 0x5f,
  0x33, 0x2f, 0x62, 0x61, 0x74, 0x63, 0x68, 0x6e, 0x6f, 0x72, 0x6d, 0x2f,
  0x61, 0x64, 0x64, 0x5f, 0x31, 0x3b, 0x73, 0x65, 0x71, 0x75, 0x65, 0x6e,
  0x74, 0x69, 0x61, 0x6c, 0x2f, 0x64, 0x65, 0x6e, 0x73, 0x65, 0x5f, 0x34,
  0x2f, 0x4d, 0x61, 0x74, 0x4d, 0x75, 0x6c, 0x3b, 0x73, 0x65, 0x71, 0x75,
  0x65, 0x6e, 0x74, 0x69, 0x61, 0x6c, 0x2f, 0x64, 0x65, 0x6e, 0x73, 0x65,
  0x5f, 0x34, 0x2f, 0x42, 0x69, 0x61, 0x73, 0x41, 0x64, 0x64, 0x00, 0x00,
  0x02, 0x00, 0x00, 0x00, 0x01, 0x00, 0x00, 0x00, 0x20, 0x00, 0x00, 0x00,
  0xf6, 0xfb, 0xff, 0xff, 0x00, 0x00, 0x00, 0x01, 0x10, 0x00, 0x00, 0x00,
  0x10, 0x00, 0x00, 0x00, 0x08, 0x00, 0x00, 0x00, 0x44, 0x00, 0x00, 0x00,
  0x38, 0xfb, 0xff, 0xff, 0x34, 0x00, 0x00, 0x00, 0x73, 0x65, 0x71, 0x75,
  0x65, 0x6e, 0x74, 0x69, 0x61, 0x6c, 0x2f, 0x64, 0x65, 0x6e, 0x73, 0x65,
  0x5f, 0x34, 0x2f, 0x4d, 0x61, 0x74, 0x4d, 0x75, 0x6c, 0x3b, 0x73, 0x65,
  0x71, 0x75, 0x65, 0x6e, 0x74, 0x69, 0x61, 0x6c, 0x2f, 0x64, 0x65, 0x6e,
  0x73, 0x65, 0x5f, 0x34, 0x2f, 0x42, 0x69, 0x61, 0x73, 0x41, 0x64, 0x64,
  0x00, 0x00, 0x00, 0x00, 0x01, 0x00, 0x00, 0x00, 0x01, 0x00, 0x00, 0x00,
  0x56, 0xfc, 0xff, 0xff, 0x00, 0x00, 0x00, 0x01, 0x10, 0x00, 0x00, 0x00,
  0x10, 0x00, 0x00, 0x00, 0x07, 0x00, 0x00, 0x00, 0xc4, 0x00, 0x00, 0x00,
  0x98, 0xfb, 0xff, 0xff, 0xb6, 0x00, 0x00, 0x00, 0x73, 0x65, 0x71, 0x75,
  0x65, 0x6e, 0x74, 0x69, 0x61, 0x6c, 0x2f, 0x62, 0x61, 0x74, 0x63, 0x68,
  0x5f, 0x6e, 0x6f, 0x72, 0x6d, 0x61, 0x6c, 0x69, 0x7a, 0x61, 0x74, 0x69,
  0x6f, 0x6e, 0x5f, 0x32, 0x2f, 0x62, 0x61, 0x74, 0x63, 0x68, 0x6e, 0x6f,
  0x72, 0x6d, 0x2f, 0x6d, 0x75, 0x6c, 0x5f, 0x31, 0x3b, 0x73, 0x65, 0x71,
  0x75, 0x65, 0x6e, 0x74, 0x69, 0x61, 0x6c, 0x2f, 0x62, 0x61, 0x74, 0x63,
  0x68, 0x5f, 0x6e, 0x6f, 0x72, 0x6d, 0x61, 0x6c, 0x69, 0x7a, 0x61, 0x74,
  0x69, 0x6f, 0x6e, 0x5f, 0x32, 0x2f, 0x62, 0x61, 0x74, 0x63, 0x68, 0x6e,
  0x6f, 0x72, 0x6d, 0x2f, 0x61, 0x64, 0x64, 0x5f, 0x31, 0x3b, 0x73, 0x65,
  0x71, 0x75, 0x65, 0x6e, 0x74, 0x69, 0x61, 0x6c, 0x2f, 0x64, 0x65, 0x6e,
  0x73, 0x65, 0x5f, 0x33, 0x2f, 0x4d, 0x61, 0x74, 0x4d, 0x75, 0x6c, 0x3b,
  0x73, 0x65, 0x71, 0x75, 0x65, 0x6e, 0x74, 0x69, 0x61, 0x6c, 0x2f, 0x64,
  0x65, 0x6e, 0x73, 0x65, 0x5f, 0x33, 0x2f, 0x72, 0x65, 0x5f, 0x6c, 0x75,
  0x5f, 0x33, 0x2f, 0x52, 0x65, 0x6c, 0x75, 0x3b, 0x73, 0x65, 0x71, 0x75,
  0x65, 0x6e, 0x74, 0x69, 0x61, 0x6c, 0x2f, 0x64, 0x65, 0x6e, 0x73, 0x65,
  0x5f, 0x33, 0x2f, 0x42, 0x69, 0x61, 0x73, 0x41, 0x64, 0x64, 0x00, 0x00,
  0x02, 0x00, 0x00, 0x00, 0x20, 0x00, 0x00, 0x00, 0x20, 0x00, 0x00, 0x00,
  0x3a, 0xfd, 0xff, 0xff, 0x00, 0x00, 0x00, 0x01, 0x10, 0x00, 0x00, 0x00,
  0x10, 0x00, 0x00, 0x00, 0x06, 0x00, 0x00, 0x00, 0x64, 0x00, 0x00, 0x00,
  0x7c, 0xfc, 0xff, 0xff, 0x54, 0x00, 0x00, 0x00, 0x73, 0x65, 0x71, 0x75,
  0x65, 0x6e, 0x74, 0x69, 0x61, 0x6c, 0x2f, 0x64, 0x65, 0x6e, 0x73, 0x65,
  0x5f, 0x33, 0x2f, 0x4d, 0x61, 0x74, 0x4d, 0x75, 0x6c, 0x3b, 0x73, 0x65,
  0x71, 0x75, 0x65, 0x6e, 0x74, 0x69, 0x61, 0x6c, 0x2f, 0x64, 0x65, 0x6e,
  0x73, 0x65, 0x5f, 0x33, 0x2f, 0x72, 0x65, 0x5f, 0x6c, 0x75, 0x5f, 0x33,
  0x2f, 0x52, 0x65, 0x6c, 0x75, 0x3b, 0x73, 0x65, 0x71, 0x75, 0x65, 0x6e,
  0x74, 0x69, 0x61, 0x6c, 0x2f, 0x64, 0x65, 0x6e, 0x73, 0x65, 0x5f, 0x33,
  0x2f, 0x42, 0x69, 0x61, 0x73, 0x41, 0x64, 0x64, 0x00, 0x00, 0x00, 0x00,
  0x01, 0x00, 0x00, 0x00, 0x20, 0x00, 0x00, 0x00, 0xba, 0xfd, 0xff, 0xff,
  0x00, 0x00, 0x00, 0x01, 0x10, 0x00, 0x00, 0x00, 0x10, 0x00, 0x00, 0x00,
  0x05, 0x00, 0x00, 0x00, 0xc4, 0x00, 0x00, 0x00, 0xfc, 0xfc, 0xff, 0xff,
  0xb6, 0x00, 0x00, 0x00, 0x73, 0x65, 0x71, 0x75, 0x65, 0x6e, 0x74, 0x69,
  0x61, 0x6c, 0x2f, 0x62, 0x61, 0x74, 0x63, 0x68, 0x5f, 0x6e, 0x6f, 0x72,
  0x6d, 0x61, 0x6c, 0x69, 0x7a, 0x61, 0x74, 0x69, 0x6f, 0x6e, 0x5f, 0x31,
  0x2f, 0x62, 0x61, 0x74, 0x63, 0x68, 0x6e, 0x6f, 0x72, 0x6d, 0x2f, 0x6d,
  0x75, 0x6c, 0x5f, 0x31, 0x3b, 0x73, 0x65, 0x71, 0x75, 0x65, 0x6e, 0x74,
  0x69, 0x61, 0x6c, 0x2f, 0x62, 0x61, 0x74, 0x63, 0x68, 0x5f, 0x6e, 0x6f,
  0x72, 0x6d, 0x61, 0x6c, 0x69, 0x7a, 0x61, 0x74, 0x69, 0x6f, 0x6e, 0x5f,
  0x31, 0x2f, 0x62, 0x61, 0x74, 0x63, 0x68, 0x6e, 0x6f, 0x72, 0x6d, 0x2f,
  0x61, 0x64, 0x64, 0x5f, 0x31, 0x3b, 0x73, 0x65, 0x71, 0x75, 0x65, 0x6e,
  0x74, 0x69, 0x61, 0x6c, 0x2f, 0x64, 0x65, 0x6e, 0x73, 0x65, 0x5f, 0x32,
  0x2f, 0x4d, 0x61, 0x74, 0x4d, 0x75, 0x6c, 0x3b, 0x73, 0x65, 0x71, 0x75,
